{
  "version": "1.0",
  "truncation": null,
  "padding": null,
  "added_tokens": [
    {
      "id": 0,
      "content": "<pad>",
      "single_word": false,
      "lstrip": false,
      "rstrip": false,
      "normalized": false,
      "special": true
    },
    {
      "id": 1,
      "content": "<bos>",
      "single_word": false,
      "lstrip": false,
      "rstrip": false,
      "normalized": false,
      "special": true
    },
    {
      "id": 2,
      "content": "<eos>",
      "single_word": false,
      "lstrip": false,
      "rstrip": false,
      "normalized": false,
      "special": true
    },
    {
      "id": 3,
      "content": "<unk>",
      "single_word": false,
      "lstrip": false,
      "rstrip": false,
      "normalized": false,
      "special": true
    }
  ],
  "normalizer": null,
  "pre_tokenizer": {
    "type": "ByteLevel",
    "add_prefix_space": false,
    "trim_offsets": true,
    "use_regex": true
  },
  "post_processor": {
    "type": "TemplateProcessing",
    "single": [
      {
        "SpecialToken": {
          "id": "<bos>",
          "type_id": 0
        }
      },
      {
        "Sequence": {
          "id": "A",
          "type_id": 0
        }
      },
      {
        "SpecialToken": {
          "id": "<eos>",
          "type_id": 0
        }
      }
    ],
    "pair": [
      {
        "SpecialToken": {
          "id": "<bos>",
          "type_id": 0
        }
      },
      {
        "Sequence": {
          "id": "A",
          "type_id": 0
        }
      },
      {
        "SpecialToken": {
          "id": "<eos>",
          "type_id": 0
        }
      },
      {
        "Sequence": {
          "id": "B",
          "type_id": 1
        }
      },
      {
        "SpecialToken": {
          "id": "<eos>",
          "type_id": 1
        }
      }
    ],
    "special_tokens": {
      "<bos>": {
        "id": "<bos>",
        "ids": [
          1
        ],
        "tokens": [
          "<bos>"
        ]
      },
      "<eos>": {
        "id": "<eos>",
        "ids": [
          2
        ],
        "tokens": [
          "<eos>"
        ]
      }
    }
  },
  "decoder": {
    "type": "ByteLevel",
    "add_prefix_space": true,
    "trim_offsets": true,
    "use_regex": true
  },
  "model": {
    "type": "BPE",
    "dropout": null,
    "unk_token": "<unk>",
    "continuing_subword_prefix": null,
    "end_of_word_suffix": null,
    "fuse_unk": false,
    "byte_fallback": false,
    "ignore_merges": false,
    "vocab": {
      "<pad>": 0,
      "<bos>": 1,
      "<eos>": 2,
      "<unk>": 3,
      "!": 4,
      "\"": 5,
      "#": 6,
      "$": 7,
      "%": 8,
      "&": 9,
      "'": 10,
      "(": 11,
      ")": 12,
      "*": 13,
      "+": 14,
      ",": 15,
      "-": 16,
      ".": 17,
      "/": 18,
      "0": 19,
      "1": 20,
      "2": 21,
      "3": 22,
      "4": 23,
      "5": 24,
      "6": 25,
      "7": 26,
      "8": 27,
      "9": 28,
      ":": 29,
      ";": 30,
      "<": 31,
      "=": 32,
      ">": 33,
      "?": 34,
      "@": 35,
      "A": 36,
      "B": 37,
      "C": 38,
      "D": 39,
      "E": 40,
      "F": 41,
      "G": 42,
      "H": 43,
      "I": 44,
      "J": 45,
      "K": 46,
      "L": 47,
      "M": 48,
      "N": 49,
      "O": 50,
      "P": 51,
      "Q": 52,
      "R": 53,
      "S": 54,
      "T": 55,
      "U": 56,
      "V": 57,
      "W": 58,
      "X": 59,
      "Y": 60,
      "Z": 61,
      "[": 62,
      "\\": 63,
      "]": 64,
      "^": 65,
      "_": 66,
      "`": 67,
      "a": 68,
      "b": 69,
      "c": 70,
      "d": 71,
      "e": 72,
      "f": 73,
      "g": 74,
      "h": 75,
      "i": 76,
      "j": 77,
      "k": 78,
      "l": 79,
      "m": 80,
      "n": 81,
      "o": 82,
      "p": 83,
      "q": 84,
      "r": 85,
      "s": 86,
      "t": 87,
      "u": 88,
      "v": 89,
      "w": 90,
      "x": 91,
      "y": 92,
      "z": 93,
      "{": 94,
      "|": 95,
      "}": 96,
      "~": 97,
      "¡": 98,
      "¢": 99,
      "£": 100,
      "¤": 101,
      "¥": 102,
      "¦": 103,
      "§": 104,
      "¨": 105,
      "©": 106,
      "ª": 107,
      "«": 108,
      "¬": 109,
      "®": 110,
      "¯": 111,
      "°": 112,
      "±": 113,
      "²": 114,
      "³": 115,
      "´": 116,
      "µ": 117,
      "¶": 118,
      "·": 119,
      "¸": 120,
      "¹": 121,
      "º": 122,
      "»": 123,
      "¼": 124,
      "½": 125,
      "¾": 126,
      "¿": 127,
      "À": 128,
      "Á": 129,
      "Â": 130,
      "Ã": 131,
      "Ä": 132,
      "Å": 133,
      "Æ": 134,
      "Ç": 135,
      "È": 136,
      "É": 137,
      "Ê": 138,
      "Ë": 139,
      "Ì": 140,
      "Í": 141,
      "Î": 142,
      "Ï": 143,
      "Ð": 144,
      "Ñ": 145,
      "Ò": 146,
      "Ó": 147,
      "Ô": 148,
      "Õ": 149,
      "Ö": 150,
      "×": 151,
      "Ø": 152,
      "Ù": 153,
      "Ú": 154,
      "Û": 155,
      "Ü": 156,
      "Ý": 157,
      "Þ": 158,
      "ß": 159,
      "à": 160,
      "á": 161,
      "â": 162,
      "ã": 163,
      "ä": 164,
      "å": 165,
      "æ": 166,
      "ç": 167,
      "è": 168,
      "é": 169,
      "ê": 170,
      "ë": 171,
      "ì": 172,
      "í": 173,
      "î": 174,
      "ï": 175,
      "ð": 176,
      "ñ": 177,
      "ò": 178,
      "ó": 179,
      "ô": 180,
      "õ": 181,
      "ö": 182,
      "÷": 183,
      "ø": 184,
      "ù": 185,
      "ú": 186,
      "û": 187,
      "ü": 188,
      "ý": 189,
      "þ": 190,
      "ÿ": 191,
      "Ā": 192,
      "ā": 193,
      "Ă": 194,
      "ă": 195,
      "Ą": 196,
      "ą": 197,
      "Ć": 198,
      "ć": 199,
      "Ĉ": 200,
      "ĉ": 201,
      "Ċ": 202,
      "ċ": 203,
      "Č": 204,
      "č": 205,
      "Ď": 206,
      "ď": 207,
      "Đ": 208,
      "đ": 209,
      "Ē": 210,
      "ē": 211,
      "Ĕ": 212,
      "ĕ": 213,
      "Ė": 214,
      "ė": 215,
      "Ę": 216,
      "ę": 217,
      "Ě": 218,
      "ě": 219,
      "Ĝ": 220,
      "ĝ": 221,
      "Ğ": 222,
      "ğ": 223,
      "Ġ": 224,
      "ġ": 225,
      "Ģ": 226,
      "ģ": 227,
      "Ĥ": 228,
      "ĥ": 229,
      "Ħ": 230,
      "ħ": 231,
      "Ĩ": 232,
      "ĩ": 233,
      "Ī": 234,
      "ī": 235,
      "Ĭ": 236,
      "ĭ": 237,
      "Į": 238,
      "į": 239,
      "İ": 240,
      "ı": 241,
      "Ĳ": 242,
      "ĳ": 243,
      "Ĵ": 244,
      "ĵ": 245,
      "Ķ": 246,
      "ķ": 247,
      "ĸ": 248,
      "Ĺ": 249,
      "ĺ": 250,
      "Ļ": 251,
      "ļ": 252,
      "Ľ": 253,
      "ľ": 254,
      "Ŀ": 255,
      "ŀ": 256,
      "Ł": 257,
      "ł": 258,
      "Ń": 259,
      "Ġt": 260,
      "he": 261,
      "Ġa": 262,
      "in": 263,
      "Ġthe": 264,
      "er": 265,
      "on": 266,
      "Ġ,": 267,
      "re": 268,
      "Ġs": 269,
      "ed": 270,
      "Ġo": 271,
      "Ġw": 272,
      "nd": 273,
      "at": 274,
      "Ġ.": 275,
      "or": 276,
      "it": 277,
      "Ġc": 278,
      "en": 279,
      "Ġf": 280,
      "is": 281,
      "es": 282,
      "ar": 283,
      "Ġof": 284,
      "Ġb": 285,
      "an": 286,
      "Ġin": 287,
      "al": 288,
      "ing": 289,
      "Ġp": 290,
      "Ġand": 291,
      "as": 292,
      "Ġto": 293,
      "ro": 294,
      "ic": 295,
      "Ġm": 296,
      "Ġd": 297,
      "Ġh": 298,
      "ion": 299,
      "le": 300,
      "ou": 301,
      "ĠT": 302,
      "Ġre": 303,
      "Ġ=": 304,
      "Ġ\"": 305,
      "ĠA": 306,
      "ĠS": 307,
      "ent": 308,
      "il": 309,
      "Ġth": 310,
      "Ġ1": 311,
      "st": 312,
      "ĠC": 313,
      "el": 314,
      "om": 315,
      "Ġl": 316,
      "am": 317,
      "ĠĊ": 318,
      "Ġe": 319,
      "Ġn": 320,
      "Ġ@": 321,
      "ad": 322,
      "ac": 323,
      "Ġwas": 324,
      "ĠM": 325,
      "ur": 326,
      "ĠThe": 327,
      "ec": 328,
      "Ġon": 329,
      "ly": 330,
      "ĠB": 331,
      "ĠI": 332,
      "Ġg": 333,
      "Ġ'": 334,
      "et": 335,
      "ol": 336,
      "id": 337,
      "iv": 338,
      "im": 339,
      "Ġfor": 340,
      "ir": 341,
      "-@": 342,
      "Ġ@-@": 343,
      "ig": 344,
      "ot": 345,
      "ter": 346,
      "Ġas": 347,
      "ĠH": 348,
      "us": 349,
      "ow": 350,
      "Ġst": 351,
      "ut": 352,
      "ith": 353,
      "ay": 354,
      "Ġ2": 355,
      "ĠP": 356,
      "ation": 357,
      "ver": 358,
      "Ġbe": 359,
      "her": 360,
      "Ġthat": 361,
      "Ġwith": 362,
      "ĠR": 363,
      "ce": 364,
      "th": 365,
      "ĠD": 366,
      "Ġis": 367,
      "un": 368,
      "em": 369,
      "ĠF": 370,
      "Ġwh": 371,
      "ul": 372,
      "Ġby": 373,
      "Ġal": 374,
      "ch": 375,
      "Ġ)": 376,
      "Ġ(": 377,
      "ĠW": 378,
      "Ġcon": 379,
      "ra": 380,
      "ĠG": 381,
      "os": 382,
      "ĠL": 383,
      "ĠN": 384,
      "Ġat": 385,
      "ers": 386,
      "ct": 387,
      "Ġit": 388,
      "Ġ19": 389,
      "rom": 390,
      "and": 391,
      "Ġan": 392,
      "um": 393,
      "est": 394,
      "ĠJ": 395,
      "ag": 396,
      "Ġhe": 397,
      "00": 398,
      "ist": 399,
      "ain": 400,
      "od": 401,
      "av": 402,
      "ri": 403,
      "ĠE": 404,
      "ĠO": 405,
      "Ġfrom": 406,
      "Ġcom": 407,
      "Ġhis": 408,
      "op": 409,
      "Ġpro": 410,
      "res": 411,
      "ies": 412,
      "if": 413,
      "Ġv": 414,
      "ort": 415,
      "ere": 416,
      "ill": 417,
      "ld": 418,
      "Ġde": 419,
      "pp": 420,
      "Ġsu": 421,
      "ore": 422,
      "ĠIn": 423,
      "Ġr": 424,
      "Ġse": 425,
      "Ġwere": 426,
      "ew": 427,
      "ong": 428,
      "igh": 429,
      "ard": 430,
      "ate": 431,
      "all": 432,
      "art": 433,
      "ak": 434,
      "ich": 435,
      "Ġch": 436,
      "Ġor": 437,
      "ab": 438,
      "ant": 439,
      "ud": 440,
      "oc": 441,
      "ber": 442,
      "Ġex": 443,
      "gh": 444,
      "ity": 445,
      "ated": 446,
      "pt": 447,
      "ess": 448,
      "ear": 449,
      "ĠK": 450,
      "Ġpl": 451,
      "ame": 452,
      "qu": 453,
      "ive": 454,
      "rou": 455,
      "Ġare": 456,
      "Ġâ": 457,
      "Ġsh": 458,
      "Ġk": 459,
      "ack": 460,
      "ect": 461,
      "ĠâĢ": 462,
      "ĠU": 463,
      "Ġhad": 464,
      "se": 465,
      "Ġwhich": 466,
      "red": 467,
      "ov": 468,
      "ĠSt": 469,
      "ast": 470,
      "Ġsp": 471,
      "ian": 472,
      "Ġy": 473,
      "ment": 474,
      "Ġle": 475,
      "Ġnot": 476,
      "ge": 477,
      "ord": 478,
      "rit": 479,
      "ip": 480,
      "ine": 481,
      "ell": 482,
      "ally": 483,
      "our": 484,
      "ost": 485,
      "ight": 486,
      "ther": 487,
      "ap": 488,
      "Ġu": 489,
      "ish": 490,
      "ĠCh": 491,
      "oun": 492,
      "ia": 493,
      "Ġ3": 494,
      "ave": 495,
      "ary": 496,
      "ust": 497,
      "og": 498,
      "Ġ200": 499,
      "Ġun": 500,
      "ous": 501,
      "irst": 502,
      "ĠV": 503,
      "cc": 504,
      "Ġinc": 505,
      "Ġ;": 506,
      "Ġcomp": 507,
      "ru": 508,
      "ions": 509,
      "Ġtheir": 510,
      "Ġbut": 511,
      "ide": 512,
      "ure": 513,
      "so": 514,
      "Ġcont": 515,
      "Ġint": 516,
      "fter": 517,
      "ical": 518,
      "ial": 519,
      "Ġar": 520,
      "Ġfirst": 521,
      "ould": 522,
      "Ġits": 523,
      "hed": 524,
      "ĠâĢĵ": 525,
      "Ġwhe": 526,
      "wo": 527,
      "out": 528,
      "ub": 529,
      "Ġ20": 530,
      "ff": 531,
      "Ġ:": 532,
      "ue": 533,
      "Ġher": 534,
      "own": 535,
      "ok": 536,
      "Ġalso": 537,
      "Ġcl": 538,
      "per": 539,
      "ign": 540,
      "ater": 541,
      "ran": 542,
      "orm": 543,
      "ie": 544,
      "ome": 545,
      "ork": 546,
      "ass": 547,
      "ire": 548,
      "end": 549,
      "Ġres": 550,
      "Ġab": 551,
      "Ġad": 552,
      "Ġus": 553,
      "ry": 554,
      "Ġrec": 555,
      "Ġhave": 556,
      "age": 557,
      "ĠHe": 558,
      "Ġ4": 559,
      "Ġro": 560,
      "mer": 561,
      "Ġone": 562,
      "ond": 563,
      "low": 564,
      "Ġhas": 565,
      "ĠTh": 566,
      "du": 567,
      "Ġ5": 568,
      "Ġper": 569,
      "Ġbeen": 570,
      "ime": 571,
      "Ġtwo": 572,
      "ence": 573,
      "land": 574,
      "Ġ18": 575,
      ".@": 576,
      "Ġ@.@": 577,
      "ult": 578,
      "ree": 579,
      "ough": 580,
      "ile": 581,
      "Ġwho": 582,
      "ĠAl": 583,
      "Ġsc": 584,
      "uring": 585,
      "pl": 586,
      "ory": 587,
      "ition": 588,
      "ric": 589,
      "ations": 590,
      "Ġdis": 591,
      "Ġthis": 592,
      "Ġbec": 593,
      "Ġapp": 594,
      "iz": 595,
      "ĠIt": 596,
      "are": 597,
      "ach": 598,
      "lud": 599,
      "ade": 600,
      "Ġplay": 601,
      "Ġj": 602,
      "Ġman": 603,
      "act": 604,
      "ely": 605,
      "Ġpart": 606,
      "Ġdes": 607,
      "Ġag": 608,
      "Ġthey": 609,
      "Ġyear": 610,
      "ount": 611,
      "Ġ201": 612,
      "Ġover": 613,
      "Ġother": 614,
      "ound": 615,
      "Ġafter": 616,
      "ib": 617,
      "over": 618,
      "Ġser": 619,
      "Ġen": 620,
      "Ġoff": 621,
      "Ġim": 622,
      "ction": 623,
      "ĠY": 624,
      "ke": 625,
      "ite": 626,
      ",@": 627,
      "Ġ@,@": 628,
      "te": 629,
      "urn": 630,
      "Ġinclud": 631,
      "ress": 632,
      "ance": 633,
      "ang": 634,
      "Ġatt": 635,
      "ice": 636,
      "ace": 637,
      "ark": 638,
      "Ġout": 639,
      "wn": 640,
      "ph": 641,
      "ember": 642,
      "Ġpre": 643,
      "Ġup": 644,
      "ens": 645,
      "man": 646,
      "Ġev": 647,
      "Ġtime": 648,
      "nder": 649,
      "rough": 650,
      "ced": 651,
      "Ġfin": 652,
      "Ġinto": 653,
      "one": 654,
      "port": 655,
      "round": 656,
      "we": 657,
      "ren": 658,
      "les": 659,
      "int": 660,
      "ĠOn": 661,
      "vel": 662,
      "Ġcomm": 663,
      "Ġshe": 664,
      "ason": 665,
      "amp": 666,
      "Ġte": 667,
      "Ġwould": 668,
      "ward": 669,
      "Ġmore": 670,
      "Ġ6": 671,
      "ied": 672,
      "ose": 673,
      "rib": 674,
      "ĠUn": 675,
      "Ġall": 676,
      "ings": 677,
      "tern": 678,
      "ces": 679,
      "able": 680,
      "Ġwe": 681,
      "ited": 682,
      "ever": 683,
      "ents": 684,
      "Ġhim": 685,
      "ased": 686,
      "ors": 687,
      "oy": 688,
      "ood": 689,
      "Ġcent": 690,
      "ix": 691,
      "ase": 692,
      "ild": 693,
      "ĠAn": 694,
      "Ġ7": 695,
      "Ġwork": 696,
      "ates": 697,
      "ious": 698,
      "ath": 699,
      "Ġpo": 700,
      "rop": 701,
      "old": 702,
      "als": 703,
      "iss": 704,
      "ey": 705,
      "ict": 706,
      "Ġfe": 707,
      "Ġthem": 708,
      "gan": 709,
      "Ġsec": 710,
      "Ġbet": 711,
      "Ġwhen": 712,
      "Ġsong": 713,
      "Ġrem": 714,
      "ep": 715,
      "form": 716,
      "ail": 717,
      "fer": 718,
      "Ġear": 719,
      "ubl": 720,
      "aw": 721,
      "Ġkn": 722,
      "ake": 723,
      "aus": 724,
      "Ġmost": 725,
      "Ġcons": 726,
      "Ġduring": 727,
      "ĠAs": 728,
      "orth": 729,
      "Ġnew": 730,
      "ered": 731,
      "ilm": 732,
      "ved": 733,
      "att": 734,
      "Ġonly": 735,
      "Ġ9": 736,
      "Ġdec": 737,
      "Ġ8": 738,
      "ick": 739,
      "Ġgame": 740,
      "ons": 741,
      "ug": 742,
      "Ġtr": 743,
      "ft": 744,
      "oth": 745,
      "ook": 746,
      "ĠMar": 747,
      "reat": 748,
      "way": 749,
      "Ġcan": 750,
      "ollow": 751,
      "outh": 752,
      "ween": 753,
      "ĠEn": 754,
      "Ġ199": 755,
      "ters": 756,
      "Ġrel": 757,
      "ind": 758,
      "Ġabout": 759,
      "Ġseason": 760,
      "Ġagain": 761,
      "ral": 762,
      "Ġthree": 763,
      "ational": 764,
      "Ġunder": 765,
      "ular": 766,
      "Ġme": 767,
      "Ġthan": 768,
      "ĠCom": 769,
      "ĠAr": 770,
      "hip": 771,
      "ob": 772,
      "Ġne": 773,
      "Ġbetween": 774,
      "Ġfl": 775,
      "hn": 776,
      "ve": 777,
      "Ġchar": 778,
      "Ġcol": 779,
      "Ġrecord": 780,
      "iew": 781,
      "ron": 782,
      "fore": 783,
      "Ġthrough": 784,
      "ision": 785,
      "orn": 786,
      "Ġ00": 787,
      "ock": 788,
      "Ġver": 789,
      "Ġlater": 790,
      "Ġnum": 791,
      "Ġend": 792,
      "olog": 793,
      "ames": 794,
      "Ġpos": 795,
      "Ġwrit": 796,
      "Ġprodu": 797,
      "Ġwhile": 798,
      "Ġact": 799,
      "Ġrele": 800,
      "Ġfilm": 801,
      "ished": 802,
      "Ġpr": 803,
      "ans": 804,
      "Ġreg": 805,
      "Ġform": 806,
      "Ġass": 807,
      "ĠSe": 808,
      "ury": 809,
      "ted": 810,
      "ts": 811,
      "Ġmade": 812,
      "Ġsub": 813,
      "Ġpe": 814,
      "Ġso": 815,
      "orld": 816,
      "Ġret": 817,
      "ĠNew": 818,
      "Ġspec": 819,
      "Ġacc": 820,
      "Ġqu": 821,
      "Ġwhere": 822,
      "ener": 823,
      "Ġmov": 824,
      "hes": 825,
      "meric": 826,
      "ating": 827,
      "Ġinter": 828,
      "ĠLe": 829,
      "ĠAmeric": 830,
      "Ġra": 831,
      "Ġsome": 832,
      "Ġco": 833,
      "Ġlar": 834,
      "Ġbu": 835,
      "Ġdef": 836,
      "bum": 837,
      "Ġac": 838,
      "Ġmus": 839,
      "Ġfollow": 840,
      "ĠAt": 841,
      "ins": 842,
      "ived": 843,
      "ific": 844,
      "ual": 845,
      "Ġam": 846,
      "Ġsuch": 847,
      "Ġsecond": 848,
      "ike": 849,
      "Ġfour": 850,
      "Ġind": 851,
      "ann": 852,
      "hen": 853,
      "Ġused": 854,
      "ĠRe": 855,
      "ics": 856,
      "lect": 857,
      "Ġday": 858,
      "iel": 859,
      "ily": 860,
      "ĠThis": 861,
      "Ġ0": 862,
      "Ġpubl": 863,
      "Ġcall": 864,
      "ĠJo": 865,
      "ll": 866,
      "Ġalbum": 867,
      "Ġ000": 868,
      "rans": 869,
      "Ġdo": 870,
      "any": 871,
      "Ġbefore": 872,
      "ros": 873,
      "ĠSh": 874,
      "Ġsy": 875,
      "aid": 876,
      "ĠEng": 877,
      "Ġbeing": 878,
      "Ġ10": 879,
      "uc": 880,
      "Ġep": 881,
      "Ġsupp": 882,
      "Ġthere": 883,
      "Ġyears": 884,
      "ars": 885,
      "owever": 886,
      "Ġent": 887,
      "ife": 888,
      "Ġhigh": 889,
      "Ġfound": 890,
      "ird": 891,
      "Ġno": 892,
      "Ġset": 893,
      "ines": 894,
      "iver": 895,
      "io": 896,
      "other": 897,
      "ject": 898,
      "Ġsur": 899,
      "aj": 900,
      "ten": 901,
      "Ġtra": 902,
      "Ġ12": 903,
      "ised": 904,
      "ities": 905,
      "velop": 906,
      "Ġbl": 907,
      "ale": 908,
      "Ġseries": 909,
      "Ġloc": 910,
      "Ġnumber": 911,
      "Ġpres": 912,
      "ane": 913,
      "ause": 914,
      "ode": 915,
      "ek": 916,
      "ton": 917,
      "ĠSc": 918,
      "ier": 919,
      "ise": 920,
      "Ġsever": 921,
      "ince": 922,
      "Ġboth": 923,
      "ank": 924,
      "row": 925,
      "irect": 926,
      "son": 927,
      "Ġthen": 928,
      "ĠBrit": 929,
      "iet": 930,
      "Ġ16": 931,
      "Ġepis": 932,
      "Ġincluding": 933,
      "its": 934,
      "igin": 935,
      "pr": 936,
      "Ġ/": 937,
      "Ġagainst": 938,
      "Ġwell": 939,
      "Ġbecame": 940,
      "Ġexp": 941,
      "Ġknown": 942,
      "Ġtrans": 943,
      "Ġcharac": 944,
      "ĠâĢĶ": 945,
      "ram": 946,
      "Ġback": 947,
      "Ġadd": 948,
      "Ġpop": 949,
      "Ġgo": 950,
      "urch": 951,
      "Ġdesc": 952,
      "Ġsing": 953,
      "ield": 954,
      "Ġperform": 955,
      "ained": 956,
      "Ġrece": 957,
      "ident": 958,
      "Ġem": 959,
      "ert": 960,
      "ures": 961,
      "Ġinv": 962,
      "Ġdep": 963,
      "Ġ198": 964,
      "air": 965,
      "ern": 966,
      "ather": 967,
      "ful": 968,
      "ĠZ": 969,
      "Ġmon": 970,
      "Ġmany": 971,
      "Ġmain": 972,
      "Ġstud": 973,
      "Ġlong": 974,
      "inn": 975,
      "though": 976,
      "up": 977,
      "ool": 978,
      "ĠUnited": 979,
      "led": 980,
      "ement": 981,
      "Ġ15": 982,
      "ower": 983,
      "ĠJohn": 984,
      "Ġop": 985,
      "Ġ11": 986,
      "ined": 987,
      "Ġmet": 988,
      "ober": 989,
      "ley": 990,
      "Ġ17": 991,
      "Ġcentury": 992,
      "Ġteam": 993,
      "Ġest": 994,
      "ĠAfter": 995,
      "yl": 996,
      "Ġmin": 997,
      "uch": 998,
      "ute": 999,
      "Ġdevelop": 1000,
      "ĠShe": 1001,
      "iam": 1002,
      "Ġshow": 1003,
      "elf": 1004,
      "Ġrep": 1005,
      "Ġconc": 1006,
      "ative": 1007,
      "Ġcre": 1008,
      "overn": 1009,
      "ared": 1010,
      "Ġ194": 1011,
      "Ġorigin": 1012,
      "Ġsm": 1013,
      "ivers": 1014,
      "az": 1015,
      "Ġlead": 1016,
      "Ġseveral": 1017,
      "ah": 1018,
      "Ġob": 1019,
      "Ġrev": 1020,
      "Ġmill": 1021,
      "erm": 1022,
      "ually": 1023,
      "oot": 1024,
      "Ġbegan": 1025,
      "Ġ196": 1026,
      "ired": 1027,
      "Ġdif": 1028,
      "Ġcontin": 1029,
      "Ġsign": 1030,
      "ik": 1031,
      "ĠInd": 1032,
      "ments": 1033,
      "ized": 1034,
      "Ġ197": 1035,
      "Ġdirect": 1036,
      "au": 1037,
      "Ġext": 1038,
      "ross": 1039,
      "emb": 1040,
      "der": 1041,
      "Ġpol": 1042,
      "Ġmay": 1043,
      "apt": 1044,
      "els": 1045,
      "ĠWh": 1046,
      "Ġcomple": 1047,
      "Ġart": 1048,
      "ĠBr": 1049,
      "ĠIs": 1050,
      "une": 1051,
      "til": 1052,
      "Ġcrit": 1053,
      "Ġhist": 1054,
      "Ġearly": 1055,
      "Ġcould": 1056,
      "ĠCon": 1057,
      "Ġdid": 1058,
      "Ġbel": 1059,
      "Ġcalled": 1060,
      "ued": 1061,
      "Ġnear": 1062,
      "Ġepisode": 1063,
      "yp": 1064,
      "Ġdescrib": 1065,
      "imes": 1066,
      "Ġbro": 1067,
      "roup": 1068,
      "ople": 1069,
      "Ġdown": 1070,
      "Ġrun": 1071,
      "aking": 1072,
      "Ġdisc": 1073,
      "Ġalong": 1074,
      "ccess": 1075,
      "ĠMay": 1076,
      "Ġfeat": 1077,
      "Ġinst": 1078,
      "ĠAmerican": 1079,
      "Ġsaid": 1080,
      "Ġdist": 1081,
      "Ġinf": 1082,
      "Ġimp": 1083,
      "ink": 1084,
      "Ġins": 1085,
      "ty": 1086,
      "Ġthese": 1087,
      "Ġmil": 1088,
      "ven": 1089,
      "ĠGer": 1090,
      "gest": 1091,
      "ium": 1092,
      "enn": 1093,
      "ĠBl": 1094,
      "ĠAust": 1095,
      "Ġresp": 1096,
      "ull": 1097,
      "ruct": 1098,
      "ured": 1099,
      "Ġthough": 1100,
      "Ġship": 1101,
      "ove": 1102,
      "Ġoper": 1103,
      "ĠBritish": 1104,
      "Ã©": 1105,
      "Ġuntil": 1106,
      "Ġprev": 1107,
      "itt": 1108,
      "amed": 1109,
      "Ġcar": 1110,
      "cept": 1111,
      "Ġstart": 1112,
      "Ġcity": 1113,
      "Ġgener": 1114,
      "Ġsame": 1115,
      "ains": 1116,
      "ĠWar": 1117,
      "ists": 1118,
      "ially": 1119,
      "ided": 1120,
      "Ġreleased": 1121,
      "Ġland": 1122,
      "ism": 1123,
      "ĠCar": 1124,
      "Ġown": 1125,
      "Ġwar": 1126,
      "Ġany": 1127,
      "Ġprov": 1128,
      "Ġreturn": 1129,
      "Ġair": 1130,
      "ĠThey": 1131,
      "xt": 1132,
      "erson": 1133,
      "oman": 1134,
      "Ġmusic": 1135,
      "Ġkm": 1136,
      "Ġdesign": 1137,
      "ajor": 1138,
      "ĠPl": 1139,
      "ible": 1140,
      "osed": 1141,
      "Ġsim": 1142,
      "Ġconst": 1143,
      "Ġappear": 1144,
      "Ġmillion": 1145,
      "Ġbecause": 1146,
      "Ġfam": 1147,
      "ash": 1148,
      "Ġmat": 1149,
      "Ġarea": 1150,
      "Ġuse": 1151,
      "Ġ13": 1152,
      "ĠAug": 1153,
      "ĠChr": 1154,
      "ĠAugust": 1155,
      "Ġocc": 1156,
      "Ġph": 1157,
      "Ġopen": 1158,
      "Ġlike": 1159,
      "ony": 1160,
      "Ġsuccess": 1161,
      "ole": 1162,
      "ouse": 1163,
      "erv": 1164,
      "Ġcount": 1165,
      "Ġpass": 1166,
      "oss": 1167,
      "Ġeff": 1168,
      "Ġpeople": 1169,
      "my": 1170,
      "chool": 1171,
      "und": 1172,
      "ĠSp": 1173,
      "stem": 1174,
      "ĠCl": 1175,
      "Ġoffic": 1176,
      "ets": 1177,
      "Ġsix": 1178,
      "uth": 1179,
      "ange": 1180,
      "ues": 1181,
      "Ġ195": 1182,
      "Ġsupport": 1183,
      "Ġaround": 1184,
      "Ġsmall": 1185,
      "ĠCol": 1186,
      "ĠHowever": 1187,
      "ĠSept": 1188,
      "Ġdam": 1189,
      "Ġ%": 1190,
      "Ġadv": 1191,
      "Ġmod": 1192,
      "Ġele": 1193,
      "Ġnorth": 1194,
      "ĠJu": 1195,
      "ales": 1196,
      "Ġhead": 1197,
      "ient": 1198,
      "Ġgovern": 1199,
      "Ġgroup": 1200,
      "raph": 1201,
      "Ġcharacter": 1202,
      "Ġbr": 1203,
      "Ġgr": 1204,
      "Ġed": 1205,
      "Ġeach": 1206,
      "Ġpoint": 1207,
      "ĠSeptember": 1208,
      "ĠAd": 1209,
      "wards": 1210,
      "Ġconsid": 1211,
      "ution": 1212,
      "ĠDe": 1213,
      "ĠGerman": 1214,
      "Ġfollowing": 1215,
      "ĠWorld": 1216,
      "Ġlife": 1217,
      "Ġgu": 1218,
      "ĠComm": 1219,
      "ĠAll": 1220,
      "ĠAustral": 1221,
      "anc": 1222,
      "Ġann": 1223,
      "Ġcontro": 1224,
      "ural": 1225,
      "Ġfive": 1226,
      "Ġvar": 1227,
      "ys": 1228,
      "ĠHer": 1229,
      "ĠUS": 1230,
      "Ġattack": 1231,
      "ged": 1232,
      "Ġ193": 1233,
      "ording": 1234,
      "Ġresult": 1235,
      "Ġwill": 1236,
      "ina": 1237,
      "ck": 1238,
      "ĠQ": 1239,
      "Ġever": 1240,
      "ĠPro": 1241,
      "Ġ191": 1242,
      "ĠEu": 1243,
      "Ġlarge": 1244,
      "ĠMe": 1245,
      "ĠII": 1246,
      "lish": 1247,
      "ĠNorth": 1248,
      "ling": 1249,
      "Ġbook": 1250,
      "Ġreport": 1251,
      "ont": 1252,
      "ague": 1253,
      "ĠFran": 1254,
      "ble": 1255,
      "ĠFor": 1256,
      "ox": 1257,
      "aced": 1258,
      "hel": 1259,
      "ĠJune": 1260,
      "Ġtit": 1261,
      "ended": 1262,
      "dom": 1263,
      "ilt": 1264,
      "ives": 1265,
      "Ġ14": 1266,
      "ats": 1267,
      "Ġprom": 1268,
      "eb": 1269,
      "med": 1270,
      "Ġweek": 1271,
      "ately": 1272,
      "aving": 1273,
      "ored": 1274,
      "Ġstr": 1275,
      "ĠJan": 1276,
      "Ġsince": 1277,
      "ĠStates": 1278,
      "Ġfinal": 1279,
      "Ġmajor": 1280,
      "ax": 1281,
      "Ġsouth": 1282,
      "Ġreceived": 1283,
      "ĠSouth": 1284,
      "ivision": 1285,
      "ĠGu": 1286,
      "Ġname": 1287,
      "Ġpartic": 1288,
      "ery": 1289,
      "Ġhel": 1290,
      "ology": 1291,
      "ption": 1292,
      "ĠChrist": 1293,
      "Ġcare": 1294,
      "ĠOct": 1295,
      "Ġpublic": 1296,
      "Ġrest": 1297,
      "Ġsystem": 1298,
      "ected": 1299,
      "ility": 1300,
      "ĠBe": 1301,
      "ting": 1302,
      "ĠKing": 1303,
      "Ġstate": 1304,
      "Ġbatt": 1305,
      "ae": 1306,
      "Ġwhat": 1307,
      "ages": 1308,
      "uary": 1309,
      "Ġlast": 1310,
      "rand": 1311,
      "Ġdescribed": 1312,
      "ĠOctober": 1313,
      "Ġline": 1314,
      "Ġclass": 1315,
      "Ġ$": 1316,
      "Ġdet": 1317,
      "iving": 1318,
      "raft": 1319,
      "ĠNov": 1320,
      "Ġplayed": 1321,
      "Ġprot": 1322,
      "Ġincre": 1323,
      "aur": 1324,
      "ropical": 1325,
      "Ġtook": 1326,
      "Ġmar": 1327,
      "Ġnow": 1328,
      "ified": 1329,
      "aim": 1330,
      "ĠPar": 1331,
      "ional": 1332,
      "get": 1333,
      "rote": 1334,
      "ants": 1335,
      "ody": 1336,
      "Ġ[": 1337,
      "Ġ]": 1338,
      "ively": 1339,
      "ĠYork": 1340,
      "Ġbuild": 1341,
      "Ġworld": 1342,
      "..": 1343,
      "Ġlate": 1344,
      "ĠDec": 1345,
      "yc": 1346,
      "Ġ25": 1347,
      "ĠJuly": 1348,
      "Ġwrote": 1349,
      "empt": 1350,
      "ball": 1351,
      "by": 1352,
      "esp": 1353,
      "ĠEurop": 1354,
      "ret": 1355,
      "Ġwon": 1356,
      "app": 1357,
      "ideo": 1358,
      "Ġspecies": 1359,
      "sion": 1360,
      "Ġchild": 1361,
      "ians": 1362,
      "Ġ...": 1363,
      "omet": 1364,
      "iod": 1365,
      "Ġport": 1366,
      "Ġmuch": 1367,
      "ĠCan": 1368,
      "ĠDuring": 1369,
      "Ġconf": 1370,
      "Ġserv": 1371,
      "Ġcamp": 1372,
      "ection": 1373,
      "Ġref": 1374,
      "Ġdue": 1375,
      "ech": 1376,
      "Ġshort": 1377,
      "arn": 1378,
      "Ġallow": 1379,
      "Ġsingle": 1380,
      "ĠApr": 1381,
      "ĠApril": 1382,
      "Ġdiffer": 1383,
      "Ġjust": 1384,
      "Ġdeath": 1385,
      "ically": 1386,
      "ract": 1387,
      "Ġstar": 1388,
      "Ġsl": 1389,
      "Ġgun": 1390,
      "ission": 1391,
      "omin": 1392,
      "ital": 1393,
      "ĠMc": 1394,
      "ĠAnd": 1395,
      "Ġanother": 1396,
      "Ġincluded": 1397,
      "ĠMus": 1398,
      "Ġposs": 1399,
      "ai": 1400,
      "Ġold": 1401,
      "Ġtri": 1402,
      "ham": 1403,
      "Ġstorm": 1404,
      "ĠGe": 1405,
      "Ġvis": 1406,
      "ĠJanuary": 1407,
      "Ġ30": 1408,
      "Ġlist": 1409,
      "Ġleft": 1410,
      "Ġeven": 1411,
      "Ġpar": 1412,
      "Ġwithin": 1413,
      "ĠEngland": 1414,
      "ple": 1415,
      "Ġprog": 1416,
      "Ġappro": 1417,
      "ger": 1418,
      "itions": 1419,
      "Ġnamed": 1420,
      "ops": 1421,
      "Ġbased": 1422,
      "Ġestab": 1423,
      "Ġif": 1424,
      "inc": 1425,
      "Ġalthough": 1426,
      "Ġattempt": 1427,
      "Ġtop": 1428,
      "ilar": 1429,
      "Ġtrack": 1430,
      "Ġvery": 1431,
      "Ġbelie": 1432,
      "Ġbre": 1433,
      "Ġthird": 1434,
      "ards": 1435,
      "Ġhum": 1436,
      "Ġwater": 1437,
      "ĠMarch": 1438,
      "ene": 1439,
      "Ġgames": 1440,
      "Ġorgan": 1441,
      "ched": 1442,
      "orp": 1443,
      "ently": 1444,
      "Ġbeg": 1445,
      "Ġpower": 1446,
      "Ġevent": 1447,
      "Ġprevious": 1448,
      "Ġfamily": 1449,
      "Ġschool": 1450,
      "ms": 1451,
      "Ġbest": 1452,
      "urric": 1453,
      "ulation": 1454,
      "ĠNovember": 1455,
      "ances": 1456,
      "Ġperiod": 1457,
      "Ġreview": 1458,
      "Ġway": 1459,
      "ĠHis": 1460,
      "Ġmen": 1461,
      "aster": 1462,
      "Ġexpl": 1463,
      "Ġhome": 1464,
      "ĠEurope": 1465,
      "Ġfur": 1466,
      "que": 1467,
      "Ġgovernment": 1468,
      "Ġtyp": 1469,
      "ĠBy": 1470,
      "ĠPh": 1471,
      "ience": 1472,
      "Ġturn": 1473,
      "Ġ192": 1474,
      "ĠDecember": 1475,
      "let": 1476,
      "ature": 1477,
      "Ġcap": 1478,
      "Ġthose": 1479,
      "Ġhand": 1480,
      "ĠThere": 1481,
      "avy": 1482,
      "Ġplace": 1483,
      "ached": 1484,
      "Ġmed": 1485,
      "hest": 1486,
      "ĠCity": 1487,
      "Ġstory": 1488,
      "oint": 1489,
      "aged": 1490,
      "Ġbuilt": 1491,
      "eder": 1492,
      "amb": 1493,
      "Ġgreat": 1494,
      "ense": 1495,
      "Ġdr": 1496,
      "ences": 1497,
      "Ġperson": 1498,
      "iven": 1499,
      "Ġcommand": 1500,
      "Ġ100": 1501,
      "Ġkill": 1502,
      "ĠFl": 1503,
      "ĠWhen": 1504,
      "oci": 1505,
      "Ġmonth": 1506,
      "Ġsent": 1507,
      "itary": 1508,
      "elt": 1509,
      "Ġopp": 1510,
      "Ġmake": 1511,
      "Ġoriginal": 1512,
      "iversity": 1513,
      "oad": 1514,
      "ĠÂ": 1515,
      "Ġhal": 1516,
      "Ġrequ": 1517,
      "ves": 1518,
      "ides": 1519,
      "ĠPr": 1520,
      "ĠNational": 1521,
      "Ġeng": 1522,
      "gy": 1523,
      "ness": 1524,
      "ention": 1525,
      "Ġ2009": 1526,
      "ĠOr": 1527,
      "Ġ2010": 1528,
      "Ġauth": 1529,
      "Ġvideo": 1530,
      "Ġ2008": 1531,
      "bs": 1532,
      "Ġant": 1533,
      "ison": 1534,
      "Ġmark": 1535,
      "Ġdem": 1536,
      "Ġsug": 1537,
      "ruction": 1538,
      "akes": 1539,
      "Ġpresent": 1540,
      "line": 1541,
      "Ġleg": 1542,
      "Ġclub": 1543,
      "ĠMan": 1544,
      "ĠRiver": 1545,
      "rench": 1546,
      "ival": 1547,
      "Ġview": 1548,
      "ĠBro": 1549,
      "riend": 1550,
      "oard": 1551,
      "Ġrepl": 1552,
      "ograph": 1553,
      "Ġcapt": 1554,
      "alk": 1555,
      "Ġstill": 1556,
      "Ġmoved": 1557,
      "Ġlocal": 1558,
      "Ġstand": 1559,
      "eng": 1560,
      "Ġled": 1561,
      "Ġrole": 1562,
      "ott": 1563,
      "aining": 1564,
      "ler": 1565,
      "Ġterm": 1566,
      "Ġcame": 1567,
      "aken": 1568,
      "Ġdest": 1569,
      "Ġiss": 1570,
      "ories": 1571,
      "ung": 1572,
      "side": 1573,
      "idge": 1574,
      "mp": 1575,
      "Ġdra": 1576,
      "Ġoften": 1577,
      "Ġcommon": 1578,
      "Ġaddition": 1579,
      "Ġhistory": 1580,
      "urricane": 1581,
      "Ġcaus": 1582,
      "lev": 1583,
      "sh": 1584,
      "ĠComp": 1585,
      "atter": 1586,
      "Ġtrad": 1587,
      "rew": 1588,
      "Ġfew": 1589,
      "ĠNo": 1590,
      "ĠWe": 1591,
      "ĠChar": 1592,
      "Ġsuggest": 1593,
      "lu": 1594,
      "read": 1595,
      "ister": 1596,
      "ĠAb": 1597,
      "Ġ2007": 1598,
      "Ġnext": 1599,
      "Ġeffect": 1600,
      "Ġconsidered": 1601,
      "Ġbas": 1602,
      "Ġdeb": 1603,
      "Ġplayer": 1604,
      "ĠOne": 1605,
      "ior": 1606,
      "Ġcour": 1607,
      "astern": 1608,
      "Ġmid": 1609,
      "ĠTr": 1610,
      "ĠEnglish": 1611,
      "Ġhelp": 1612,
      "ead": 1613,
      "Ġexper": 1614,
      "uted": 1615,
      "ĠFrench": 1616,
      "Ġcareer": 1617,
      "Ġside": 1618,
      "Ġsimilar": 1619,
      "Ġrecorded": 1620,
      "ĠBatt": 1621,
      "ays": 1622,
      "Ġright": 1623,
      "ĠX": 1624,
      "Ġwin": 1625,
      "Ġinit": 1626,
      "Ġimport": 1627,
      "ĠAcc": 1628,
      "Ġreal": 1629,
      "self": 1630,
      "ĠRec": 1631,
      "Ġclaim": 1632,
      "Ġcover": 1633,
      "Ġarch": 1634,
      "Ġcompany": 1635,
      "be": 1636,
      "ining": 1637,
      "Ġtown": 1638,
      "Ġpublished": 1639,
      "Ġsold": 1640,
      "Ġcontinued": 1641,
      "Ġrefer": 1642,
      "Ġexc": 1643,
      "Ġwind": 1644,
      "Ġdifferent": 1645,
      "Ġyou": 1646,
      "Ġtake": 1647,
      "Ġwithout": 1648,
      "ternational": 1649,
      "Ġsongs": 1650,
      "ĠWith": 1651,
      "yn": 1652,
      "Ġtot": 1653,
      "ĠPer": 1654,
      "ĠPort": 1655,
      "Ġroad": 1656,
      "Ġformer": 1657,
      "Ġ21": 1658,
      "Ġpolit": 1659,
      "Ġtw": 1660,
      "Ġtem": 1661,
      "ĠBar": 1662,
      "Ġheld": 1663,
      "ches": 1664,
      "ĠTe": 1665,
      "Ġmemb": 1666,
      "Ġamong": 1667,
      "Ġlevel": 1668,
      "Ġel": 1669,
      "ĠWill": 1670,
      "ning": 1671,
      "Ġfield": 1672,
      "Ġmag": 1673,
      "par": 1674,
      "Ġelect": 1675,
      "ner": 1676,
      "iment": 1677,
      "Ġav": 1678,
      "itar": 1679,
      "Ġdel": 1680,
      "uss": 1681,
      "Ġprop": 1682,
      "Ġwritten": 1683,
      "inning": 1684,
      "iter": 1685,
      "resent": 1686,
      "Ġevery": 1687,
      "ĠAm": 1688,
      "ĠState": 1689,
      "estern": 1690,
      "Ġ23": 1691,
      "ĠEar": 1692,
      "Ġcommun": 1693,
      "Ġhalf": 1694,
      "lear": 1695,
      "yle": 1696,
      "ĠDivision": 1697,
      "ampions": 1698,
      "Ġ2011": 1699,
      "Ġrelease": 1700,
      "ried": 1701,
      "Ġfurther": 1702,
      "ots": 1703,
      "Ġbecome": 1704,
      "Ġwest": 1705,
      "Ġ2006": 1706,
      "ensive": 1707,
      "ĠAccording": 1708,
      "Ġcr": 1709,
      "enc": 1710,
      "rodu": 1711,
      "Ġchurch": 1712,
      "ĠAlthough": 1713,
      "Ġstrong": 1714,
      "Ġfore": 1715,
      "Ġhowever": 1716,
      "Ġdays": 1717,
      "roy": 1718,
      "Ġfind": 1719,
      "ĠCanad": 1720,
      "Ġcur": 1721,
      "ices": 1722,
      "Ġeast": 1723,
      "ising": 1724,
      "ĠCount": 1725,
      "Ġversion": 1726,
      "Ġfoot": 1727,
      "Ġbeh": 1728,
      "Ġspe": 1729,
      "augh": 1730,
      "Ġparticular": 1731,
      "ering": 1732,
      "Ġ&": 1733,
      "Ġmy": 1734,
      "Ġlow": 1735,
      "ĠChurch": 1736,
      "ize": 1737,
      "ebru": 1738,
      "ĠGener": 1739,
      "Ġprof": 1740,
      "Ġcompet": 1741,
      "Ġposition": 1742,
      "Ġtitle": 1743,
      "Ġ24": 1744,
      "ĠWest": 1745,
      "Ġmilitary": 1746,
      "ĠRoman": 1747,
      "Ġconv": 1748,
      "Ġauthor": 1749,
      "Ġ22": 1750,
      "Ġ26": 1751,
      "Ġappe": 1752,
      "reen": 1753,
      "Ġorder": 1754,
      "ĠLeague": 1755,
      "outher": 1756,
      "Ġsol": 1757,
      "ront": 1758,
      "ittle": 1759,
      "Ġcontrol": 1760,
      "outhern": 1761,
      "Ġtimes": 1762,
      "ĠSong": 1763,
      "aces": 1764,
      "fric": 1765,
      "Ġband": 1766,
      "ĠFebru": 1767,
      "ĠFebruary": 1768,
      "Ġfre": 1769,
      "pped": 1770,
      "Ġless": 1771,
      "Ġgave": 1772,
      "Ġproject": 1773,
      "Ġvict": 1774,
      "Ġdefe": 1775,
      "ylan": 1776,
      "ĠGeor": 1777,
      "osp": 1778,
      "ĠAss": 1779,
      "Ġ!": 1780,
      "ĠDylan": 1781,
      "Ġchang": 1782,
      "Ġreported": 1783,
      "Ġmembers": 1784,
      "Ġnort": 1785,
      "ĠPark": 1786,
      "rick": 1787,
      "Ġnov": 1788,
      "Ġproduced": 1789,
      "Ġstat": 1790,
      "levision": 1791,
      "Ġtotal": 1792,
      "isc": 1793,
      "arm": 1794,
      "eter": 1795,
      "hern": 1796,
      "Ġ2012": 1797,
      "aying": 1798,
      "ĠOld": 1799,
      "Ġarr": 1800,
      "iety": 1801,
      "Ġcult": 1802,
      "Ġpopular": 1803,
      "Ġter": 1804,
      "Ġfire": 1805,
      "esc": 1806,
      "oung": 1807,
      "ailed": 1808,
      "Ġproduction": 1809,
      "urs": 1810,
      "apan": 1811,
      "Ġobs": 1812,
      "Ġtropical": 1813,
      "hem": 1814,
      "ĠSim": 1815,
      "Ġ28": 1816,
      "ĠPol": 1817,
      "ression": 1818,
      "Ġpost": 1819,
      "Ġforces": 1820,
      "ĠSte": 1821,
      "Ġcritic": 1822,
      "ford": 1823,
      "ĠHa": 1824,
      "ĠJapan": 1825,
      "Ġchildren": 1826,
      "Ġhistor": 1827,
      "Ġpat": 1828,
      "Ġhaving": 1829,
      "ush": 1830,
      "ĠEd": 1831,
      "Ġinclude": 1832,
      "ald": 1833,
      "echn": 1834,
      "ring": 1835,
      "ours": 1836,
      "Ġsurv": 1837,
      "Ġinvol": 1838,
      "Ġinflu": 1839,
      "alion": 1840,
      "ne": 1841,
      "Ġsk": 1842,
      "Ġlost": 1843,
      "rent": 1844,
      "Ġaff": 1845,
      "atic": 1846,
      "ĠSu": 1847,
      "Ġgiven": 1848,
      "Ġcountry": 1849,
      "Ġwant": 1850,
      "ably": 1851,
      "Ġrepresent": 1852,
      "work": 1853,
      "ĠEl": 1854,
      "Ġsignific": 1855,
      "ĠCent": 1856,
      "omen": 1857,
      "ĠDav": 1858,
      "Ġmanag": 1859,
      "ope": 1860,
      "ploy": 1861,
      "ĠGeneral": 1862,
      "Ġpress": 1863,
      "Ġequ": 1864,
      "vers": 1865,
      "Ġ2013": 1866,
      "ges": 1867,
      "Ġeight": 1868,
      "ĠMiss": 1869,
      "Ġcomb": 1870,
      "reet": 1871,
      "Ġsit": 1872,
      "Ġsite": 1873,
      "ades": 1874,
      "Ġseen": 1875,
      "irc": 1876,
      "Ġprogram": 1877,
      "sp": 1878,
      "ones": 1879,
      "oon": 1880,
      "Ġmaking": 1881,
      "ĠAfric": 1882,
      "Ġnever": 1883,
      "Ġmatch": 1884,
      "ration": 1885,
      "Ġfem": 1886,
      "Ġstated": 1887,
      "Ġestabl": 1888,
      "Ã¡": 1889,
      "ither": 1890,
      "Ġbody": 1891,
      "Ġplan": 1892,
      "Ġfact": 1893,
      "Ġread": 1894,
      "Ġord": 1895,
      "Ġshould": 1896,
      "ĠWhile": 1897,
      "ĠEv": 1898,
      "sequ": 1899,
      "Ġ50": 1900,
      "Ġreturned": 1901,
      "fic": 1902,
      "ator": 1903,
      "ĠUniversity": 1904,
      "ological": 1905,
      "Ġsoc": 1906,
      "Ġft": 1907,
      "aun": 1908,
      "Ġer": 1909,
      "Ġsound": 1910,
      "Ġ190": 1911,
      "Äģ": 1912,
      "rem": 1913,
      "Ġhow": 1914,
      "ape": 1915,
      "ĠThese": 1916,
      "Ġgen": 1917,
      "Ġisland": 1918,
      "ĠNe": 1919,
      "ĠAmerica": 1920,
      "Ġcou": 1921,
      "Ġstruct": 1922,
      "Ġearl": 1923,
      "Ġships": 1924,
      "Ġannoun": 1925,
      "Ġestablished": 1926,
      "ampionship": 1927,
      "Ġgod": 1928,
      "Ġground": 1929,
      "ĠJack": 1930,
      "Ġchart": 1931,
      "Ġpopulation": 1932,
      "aff": 1933,
      "ream": 1934,
      "Ġcat": 1935,
      "Ġdiv": 1936,
      "Ġreached": 1937,
      "Ġjo": 1938,
      "ground": 1939,
      "Ġ27": 1940,
      "na": 1941,
      "view": 1942,
      "reland": 1943,
      "Ġlight": 1944,
      "Ġnoted": 1945,
      "aul": 1946,
      "ki": 1947,
      "Ġaway": 1948,
      "Ġfriend": 1949,
      "ĠIreland": 1950,
      "ĠBlack": 1951,
      "ille": 1952,
      "igade": 1953,
      "used": 1954,
      "ument": 1955,
      "ination": 1956,
      "ffic": 1957,
      "ese": 1958,
      "Ġlim": 1959,
      "oll": 1960,
      "Ġthroughout": 1961,
      "Ġacross": 1962,
      "ĠReg": 1963,
      "Ġdeveloped": 1964,
      "Ġthought": 1965,
      "iec": 1966,
      "ĠMich": 1967,
      "ĠLond": 1968,
      "Ġseven": 1969,
      "Ġsomet": 1970,
      "Ġcast": 1971,
      "aint": 1972,
      "ords": 1973,
      "ster": 1974,
      "Ġgl": 1975,
      "Ġproc": 1976,
      "ĠWilliam": 1977,
      "ĠLondon": 1978,
      "Ġpra": 1979,
      "Ġrad": 1980,
      "Ġintrodu": 1981,
      "af": 1982,
      "Ġgood": 1983,
      "ĠFeder": 1984,
      "Ġusing": 1985,
      "Ġhimself": 1986,
      "Ġdevelopment": 1987,
      "Ġblack": 1988,
      "iness": 1989,
      "omb": 1990,
      "Ġhig": 1991,
      "ĠHar": 1992,
      "Ġfelt": 1993,
      "idence": 1994,
      "reek": 1995,
      "ĠAustralia": 1996,
      "Ġhuman": 1997,
      "Ġsignificant": 1998,
      "Ġide": 1999,
      "ĠAir": 2000,
      "utes": 2001,
      "aren": 2002,
      "Ġwat": 2003,
      "Ġperformed": 2004,
      "Ġbar": 2005,
      "ump": 2006,
      "Ġimportant": 2007,
      "most": 2008,
      "ivil": 2009,
      "ĠGl": 2010,
      "Ġadm": 2011,
      "ĠAtl": 2012,
      "itive": 2013,
      "Ġnight": 2014,
      "Ġwriting": 2015,
      "Ġfun": 2016,
      "ĠPal": 2017,
      "ĠRich": 2018,
      "ĠEx": 2019,
      "Ġdestroy": 2020,
      "Ġfather": 2021,
      "ĠMag": 2022,
      "Ġmiles": 2023,
      "Ġbo": 2024,
      "antic": 2025,
      "Ġtelevision": 2026,
      "ĠRoy": 2027,
      "Ġinterest": 2028,
      "Ġvarious": 2029,
      "osaur": 2030,
      "Ġareas": 2031,
      "ief": 2032,
      "Ġtour": 2033,
      "imately": 2034,
      "Ġwhite": 2035,
      "Ġmodern": 2036,
      "Ġfull": 2037,
      "field": 2038,
      "Ġten": 2039,
      "Ġdied": 2040,
      "ĠCal": 2041,
      "Ġlook": 2042,
      "rie": 2043,
      "ogn": 2044,
      "Ġenc": 2045,
      "Ġactiv": 2046,
      "ael": 2047,
      "aign": 2048,
      "Ġwent": 2049,
      "Ġlaw": 2050,
      "ĠRober": 2051,
      "Ġneed": 2052,
      "Ġtro": 2053,
      "Ġevents": 2054,
      "Ġprim": 2055,
      "Ġdoes": 2056,
      "Ġsuccessful": 2057,
      "ĠRoad": 2058,
      "ico": 2059,
      "Ġred": 2060,
      "ization": 2061,
      "Ġdiscover": 2062,
      "Ġplayers": 2063,
      "Ġstarted": 2064,
      "Ġmm": 2065,
      "ĠTo": 2066,
      "rab": 2067,
      "ĠJames": 2068,
      "Ġdecl": 2069,
      "con": 2070,
      "reg": 2071,
      "Ġball": 2072,
      "ript": 2073,
      "Ġsee": 2074,
      "iting": 2075,
      "Ġhouse": 2076,
      "Ġfeet": 2077,
      "Ġformed": 2078,
      "ks": 2079,
      "Ġwid": 2080,
      "ourn": 2081,
      "Ġpoem": 2082,
      "Ġtechn": 2083,
      "Ġmix": 2084,
      "Ġrange": 2085,
      "ĠMount": 2086,
      "Ġsett": 2087,
      "Ġperformance": 2088,
      "ĠCounty": 2089,
      "rest": 2090,
      "Ġput": 2091,
      "Ġstyle": 2092,
      "Ġvill": 2093,
      "Ġrelations": 2094,
      "Ġbuilding": 2095,
      "Ġage": 2096,
      "Ġsum": 2097,
      "Ġtoo": 2098,
      "Ġforce": 2099,
      "abor": 2100,
      "Ġcaused": 2101,
      "ÃŃ": 2102,
      "ana": 2103,
      "Ġke": 2104,
      "ino": 2105,
      "epend": 2106,
      "ara": 2107,
      "ĠYou": 2108,
      "alth": 2109,
      "ĠKe": 2110,
      "ublic": 2111,
      "Ġsw": 2112,
      "ened": 2113,
      "ĠCro": 2114,
      "Ġnovel": 2115,
      "Ġpri": 2116,
      "iers": 2117,
      "isted": 2118,
      "Ġ189": 2119,
      "Ġcreated": 2120,
      "Ġofficial": 2121,
      "day": 2122,
      "fall": 2123,
      "idd": 2124,
      "elling": 2125,
      "asing": 2126,
      "ĠSom": 2127,
      "Ġ2004": 2128,
      "ĠAng": 2129,
      "ym": 2130,
      "Ġpit": 2131,
      "Ġ2005": 2132,
      "Ġrelig": 2133,
      "Ġentire": 2134,
      "gr": 2135,
      "less": 2136,
      "Ġson": 2137,
      "ality": 2138,
      "eth": 2139,
      "ĠOl": 2140,
      "Ġable": 2141,
      "Ġcoast": 2142,
      "Ġpolitical": 2143,
      "ĠHigh": 2144,
      "ries": 2145,
      "ressed": 2146,
      "Ġcharacters": 2147,
      "ĠSec": 2148,
      "Ġste": 2149,
      "inal": 2150,
      "Ġget": 2151,
      "ĠHam": 2152,
      "Ġothers": 2153,
      "Ġconstruction": 2154,
      "Ġcert": 2155,
      "Ġbird": 2156,
      "Ġpred": 2157,
      "Ġpromot": 2158,
      "ases": 2159,
      "Ġbattle": 2160,
      "br": 2161,
      "ĠTown": 2162,
      "Ġnational": 2163,
      "ways": 2164,
      "acy": 2165,
      "Ġoccur": 2166,
      "oming": 2167,
      "Ġval": 2168,
      "ĠâĢĻ": 2169,
      "Ġfig": 2170,
      "ĠSw": 2171,
      "ample": 2172,
      "Ġlik": 2173,
      "ament": 2174,
      "Ġonce": 2175,
      "ĠHist": 2176,
      "play": 2177,
      "ficult": 2178,
      "Ġfac": 2179,
      "Ġremained": 2180,
      "por": 2181,
      "ĠCare": 2182,
      "ĠBra": 2183,
      "Ġlocated": 2184,
      "Ġmount": 2185,
      "Ġtradition": 2186,
      "enth": 2187,
      "ivid": 2188,
      "Ġrock": 2189,
      "Ġscored": 2190,
      "Ġworks": 2191,
      "Ġdifficult": 2192,
      "ĠKingdom": 2193,
      "craft": 2194,
      "Ġredu": 2195,
      "Ġ31": 2196,
      "Ġproduc": 2197,
      "lected": 2198,
      "ĠIsland": 2199,
      "Ġcampaign": 2200,
      "Ġguns": 2201,
      "Ġtre": 2202,
      "Ġcross": 2203,
      "ĠCup": 2204,
      "ĠMon": 2205,
      "Ġstars": 2206,
      "ĠGrand": 2207,
      "Ġmeet": 2208,
      "Ġcompleted": 2209,
      "ĠAustralian": 2210,
      "Ġannounced": 2211,
      "Ġrank": 2212,
      "Ġregion": 2213,
      "Ġhold": 2214,
      "ett": 2215,
      "Ġsqu": 2216,
      "orse": 2217,
      "Ġnuc": 2218,
      "ounc": 2219,
      "off": 2220,
      "itted": 2221,
      "Ġgrow": 2222,
      "Ġsuper": 2223,
      "Ġcolle": 2224,
      "Ġgoal": 2225,
      "ĠCompany": 2226,
      "ique": 2227,
      "oid": 2228,
      "Ġfav": 2229,
      "arch": 2230,
      "Ġlittle": 2231,
      "Ġconn": 2232,
      "umb": 2233,
      "Ġlet": 2234,
      "Ġprocess": 2235,
      "ray": 2236,
      "enced": 2237,
      "Ġfight": 2238,
      "Ġfront": 2239,
      "aly": 2240,
      "omp": 2241,
      "rought": 2242,
      "Ġinstead": 2243,
      "ĠAct": 2244,
      "ky": 2245,
      "Ġcirc": 2246,
      "Ġ29": 2247,
      "Ġadded": 2248,
      "here": 2249,
      "leet": 2250,
      "ĠMor": 2251,
      "Ġcond": 2252,
      "omm": 2253,
      "Ġleast": 2254,
      "duct": 2255,
      "Ġfollowed": 2256,
      "ĠBill": 2257,
      "Ġknow": 2258,
      "Ġpeak": 2259,
      "Ġappeared": 2260,
      "Ġborn": 2261,
      "Ġkilled": 2262,
      "Ġsouthern": 2263,
      "angu": 2264,
      "Ġoriginally": 2265,
      "Ġmonths": 2266,
      "oice": 2267,
      "Ġwife": 2268,
      "urb": 2269,
      "Ġcomment": 2270,
      "ĠArmy": 2271,
      "Ġstri": 2272,
      "ĠDavid": 2273,
      "mar": 2274,
      "Ġfif": 2275,
      "Ġmother": 2276,
      "Ġloss": 2277,
      "ota": 2278,
      "Ġ40": 2279,
      "Ġstudy": 2280,
      "ius": 2281,
      "Ġhurricane": 2282,
      "Ġassoci": 2283,
      "Ġwomen": 2284,
      "Ġcell": 2285,
      "ects": 2286,
      "ĠMusic": 2287,
      "Ġident": 2288,
      "Ġmass": 2289,
      "ston": 2290,
      "Ġeastern": 2291,
      "Ġnon": 2292,
      "Ġsex": 2293,
      "antry": 2294,
      "Ġagre": 2295,
      "Ġrelationship": 2296,
      "Ġaud": 2297,
      "Ġaward": 2298,
      "Ġ2003": 2299,
      "Ġcritics": 2300,
      "Ġbroad": 2301,
      "ycl": 2302,
      "Ġanim": 2303,
      "Ġ185": 2304,
      "Ġeventually": 2305,
      "Ġfeatures": 2306,
      "Ġprofess": 2307,
      "olution": 2308,
      "ĠGod": 2309,
      "ĠOther": 2310,
      "Ġvoc": 2311,
      "Ġyoung": 2312,
      "aper": 2313,
      "Ġrecogn": 2314,
      "Ġ2015": 2315,
      "gin": 2316,
      "ata": 2317,
      "Ġbus": 2318,
      "Ġlive": 2319,
      "ements": 2320,
      "ully": 2321,
      "ĠFrance": 2322,
      "Ġaver": 2323,
      "Ġfourth": 2324,
      "Ġtaken": 2325,
      "ĠSer": 2326,
      "emy": 2327,
      "Ġroute": 2328,
      "Ġestim": 2329,
      "cher": 2330,
      "ĠTwo": 2331,
      "ĠBer": 2332,
      "Ġserved": 2333,
      "liam": 2334,
      "ores": 2335,
      "istic": 2336,
      "ask": 2337,
      "Ġcommer": 2338,
      "Ġprote": 2339,
      "illa": 2340,
      "Ġappoint": 2341,
      "ography": 2342,
      "ze": 2343,
      "ĠCo": 2344,
      "omes": 2345,
      "Ġlack": 2346,
      "chie": 2347,
      "Ġdecided": 2348,
      "Ġdamage": 2349,
      "ama": 2350,
      "ĠMad": 2351,
      "unk": 2352,
      "Ġheavy": 2353,
      "igned": 2354,
      "azine": 2355,
      "Ġcor": 2356,
      "Ġbase": 2357,
      "Ġeither": 2358,
      "ĠIm": 2359,
      "ĠBattalion": 2360,
      "iation": 2361,
      "Ġfar": 2362,
      "Ġcondom": 2363,
      "Ġproble": 2364,
      "Ġsepar": 2365,
      "Ġarm": 2366,
      "Ġimpro": 2367,
      "Ġinsp": 2368,
      "val": 2369,
      "ĠPart": 2370,
      "ought": 2371,
      "Ġspecial": 2372,
      "Ġbehind": 2373,
      "ĠRobert": 2374,
      "Ġtoget": 2375,
      "ica": 2376,
      "ecut": 2377,
      "ĠLove": 2378,
      "Ġcoll": 2379,
      "Ġindivid": 2380,
      "Ġbelieved": 2381,
      "Ġtogether": 2382,
      "ida": 2383,
      "Ġarg": 2384,
      "Ġquar": 2385,
      "ency": 2386,
      "liament": 2387,
      "ipp": 2388,
      "aves": 2389,
      "Ġclos": 2390,
      "iction": 2391,
      "ouncil": 2392,
      "cial": 2393,
      "Ġmater": 2394,
      "rict": 2395,
      "Ġplaying": 2396,
      "ĠRoyal": 2397,
      "ĠCarey": 2398,
      "Ġburn": 2399,
      "Ġdou": 2400,
      "ĠRed": 2401,
      "rap": 2402,
      "aching": 2403,
      "iol": 2404,
      "iber": 2405,
      "ĠMed": 2406,
      "Ġmove": 2407,
      "Ġir": 2408,
      "Ġround": 2409,
      "Ġcreat": 2410,
      "Ġbi": 2411,
      "Ġlangu": 2412,
      "ĠHen": 2413,
      "ĠDu": 2414,
      "Ġvol": 2415,
      "Ġdev": 2416,
      "Ġexample": 2417,
      "Ġclose": 2418,
      "Ġaccept": 2419,
      "ĠMex": 2420,
      "gg": 2421,
      "ĠSome": 2422,
      "ĠMin": 2423,
      "Ġalmost": 2424,
      "Ġ188": 2425,
      "alt": 2426,
      "ests": 2427,
      "Ġservice": 2428,
      "Ġleading": 2429,
      "ĠEuropean": 2430,
      "Ġsour": 2431,
      "Ġfall": 2432,
      "ĠRep": 2433,
      "odes": 2434,
      "ĠWhite": 2435,
      "Ġgenerally": 2436,
      "ĠFederer": 2437,
      "Ġsaw": 2438,
      "ators": 2439,
      "Ġce": 2440,
      "Ġtowards": 2441,
      "Ġopened": 2442,
      "Ġelements": 2443,
      "eal": 2444,
      "Ġmiss": 2445,
      "Ġ35": 2446,
      "uter": 2447,
      "oring": 2448,
      "Ġbrought": 2449,
      "ĠBrigade": 2450,
      "Ġgeneral": 2451,
      "Ġweeks": 2452,
      "Ġmot": 2453,
      "ĠPres": 2454,
      "ceed": 2455,
      "ĠWales": 2456,
      "ĠGame": 2457,
      "ĠInternational": 2458,
      "Ġfinished": 2459,
      "Ġdraw": 2460,
      "Ġz": 2461,
      "stit": 2462,
      "Ġlaun": 2463,
      "ĠFlor": 2464,
      "Ġwall": 2465,
      "Ġhost": 2466,
      "oph": 2467,
      "ĠKh": 2468,
      "ĠViet": 2469,
      "Ġregular": 2470,
      "Ġhighway": 2471,
      "Ġfeatured": 2472,
      "cast": 2473,
      "ĠIr": 2474,
      "Ġcentral": 2475,
      "Ġaircraft": 2476,
      "lement": 2477,
      "irl": 2478,
      "ending": 2479,
      "Ġindust": 2480,
      "board": 2481,
      "ĠEast": 2482,
      "ordan": 2483,
      "ounter": 2484,
      "Ġresear": 2485,
      "Ġreb": 2486,
      "etwork": 2487,
      "Ġcontract": 2488,
      "Ġpoints": 2489,
      "eum": 2490,
      "Ġfund": 2491,
      "Ġinform": 2492,
      "Ġdirected": 2493,
      "Ġ-": 2494,
      "Ġaction": 2495,
      "Ġmi": 2496,
      "ĠMo": 2497,
      "orts": 2498,
      "Ġsuff": 2499,
      "ĠChampionship": 2500,
      "Ġmeas": 2501,
      "Ġdirector": 2502,
      "Ġprovided": 2503,
      "hing": 2504,
      "Ġcut": 2505,
      "icated": 2506,
      "Ġren": 2507,
      "ĠBo": 2508,
      "ĠFollow": 2509,
      "ude": 2510,
      "wood": 2511,
      "Ġflood": 2512,
      "Ġrespect": 2513,
      "Ġnar": 2514,
      "ĠJordan": 2515,
      "Ġsequ": 2516,
      "Ġupon": 2517,
      "Ġmean": 2518,
      "ential": 2519,
      "ĠFrom": 2520,
      "ĠGal": 2521,
      "Ġappearance": 2522,
      "ned": 2523,
      "ĠJew": 2524,
      "Ġyard": 2525,
      "ellow": 2526,
      "Ġ186": 2527,
      "Ġearlier": 2528,
      "sel": 2529,
      "ying": 2530,
      "atin": 2531,
      "ĠPe": 2532,
      "ĠRock": 2533,
      "ĠEm": 2534,
      "Ġking": 2535,
      "Ġcost": 2536,
      "ĠCr": 2537,
      "Ġrather": 2538,
      "ights": 2539,
      "Ġ2014": 2540,
      "Ġsubsequ": 2541,
      "Ġfemale": 2542,
      "ĠAtlantic": 2543,
      "Ġtroops": 2544,
      "tt": 2545,
      "ĠÃ": 2546,
      "Ġill": 2547,
      "Ġreve": 2548,
      "Ġstru": 2549,
      "ĠOd": 2550,
      "ishing": 2551,
      "medi": 2552,
      "ĠChristian": 2553,
      "Ġcurrent": 2554,
      "ĠMary": 2555,
      "ĠOp": 2556,
      "Ġve": 2557,
      "Ġriver": 2558,
      "Ġlargest": 2559,
      "Ġtravel": 2560,
      "Ġvictory": 2561,
      "ĠFollowing": 2562,
      "ĠHouse": 2563,
      "ander": 2564,
      "Ġemploy": 2565,
      "Ġoperations": 2566,
      "ĠHero": 2567,
      "Ġparticularly": 2568,
      "ĠGeorge": 2569,
      "Ġmanager": 2570,
      "Ġachie": 2571,
      "erous": 2572,
      "ouri": 2573,
      "Ġprob": 2574,
      "ule": 2575,
      "Ġfort": 2576,
      "Ġopening": 2577,
      "Ġwanted": 2578,
      "ving": 2579,
      "Ġcop": 2580,
      "Ġbur": 2581,
      "Ġ500": 2582,
      "ength": 2583,
      "Ġnorthern": 2584,
      "ault": 2585,
      "ĠMac": 2586,
      "ids": 2587,
      "osition": 2588,
      "Ġexist": 2589,
      "Ġyards": 2590,
      "Ġevidence": 2591,
      "ĠPlay": 2592,
      "áĥ": 2593,
      "ita": 2594,
      "Ġfoc": 2595,
      "Ġreason": 2596,
      "ĠSl": 2597,
      "eler": 2598,
      "Ġconduct": 2599,
      "ĠPhil": 2600,
      "ĠFlorida": 2601,
      "ee": 2602,
      "ih": 2603,
      "of": 2604,
      "yd": 2605,
      "head": 2606,
      "Ġmember": 2607,
      "ĠWal": 2608,
      "reng": 2609,
      "Ġpract": 2610,
      "uck": 2611,
      "vest": 2612,
      "Ġsaying": 2613,
      "oms": 2614,
      "ĠBay": 2615,
      "ĠWil": 2616,
      "anding": 2617,
      "ĠStreet": 2618,
      "Ġoutside": 2619,
      "Ġcrew": 2620,
      "Ġallowed": 2621,
      "Ġpossible": 2622,
      "Ġengine": 2623,
      "co": 2624,
      "west": 2625,
      "atural": 2626,
      "ĠMost": 2627,
      "ĠPaul": 2628,
      "Ġaccount": 2629,
      "ĠOliv": 2630,
      "uel": 2631,
      "Ġpast": 2632,
      "Ġmer": 2633,
      "ĠMark": 2634,
      "irth": 2635,
      "Ġstage": 2636,
      "Ġneg": 2637,
      "ĠMcC": 2638,
      "Ġhours": 2639,
      "Ġwhom": 2640,
      "Ġrespons": 2641,
      "conom": 2642,
      "Ġcase": 2643,
      "ington": 2644,
      "ago": 2645,
      "artment": 2646,
      "ĠMissouri": 2647,
      "Ġmaterial": 2648,
      "bor": 2649,
      "ills": 2650,
      "Ġ2001": 2651,
      "Ġdesp": 2652,
      "Ġworked": 2653,
      "Ġregard": 2654,
      "Ġfree": 2655,
      "Ġmach": 2656,
      "Ġlength": 2657,
      "Ġnec": 2658,
      "ĠBut": 2659,
      "Ġgre": 2660,
      "Ġstreng": 2661,
      "Ġobject": 2662,
      "Ġterrit": 2663,
      "ĠTech": 2664,
      "Ġgold": 2665,
      "Ġplann": 2666,
      "aps": 2667,
      "Ġworking": 2668,
      "Ġnomin": 2669,
      "vert": 2670,
      "ems": 2671,
      "lus": 2672,
      "ville": 2673,
      "aries": 2674,
      "ĠSan": 2675,
      "Ġlove": 2676,
      "Ġrul": 2677,
      "Ġpoor": 2678,
      "Ġquick": 2679,
      "Ġdesigned": 2680,
      "cent": 2681,
      "now": 2682,
      "uk": 2683,
      "ari": 2684,
      "ĠVir": 2685,
      "ĠQu": 2686,
      "Ġfootball": 2687,
      "onst": 2688,
      "Ġmult": 2689,
      "Ġhon": 2690,
      "urt": 2691,
      "ĠBus": 2692,
      "Ġlearn": 2693,
      "ĠIndian": 2694,
      "Ġconstruct": 2695,
      "Ġpraised": 2696,
      "ps": 2697,
      "Ġesc": 2698,
      "Ġtreat": 2699,
      "ĠTor": 2700,
      "ĠBest": 2701,
      "Ġforced": 2702,
      "Ġstation": 2703,
      "ĠDay": 2704,
      "ĠFirst": 2705,
      "ession": 2706,
      "Ġremains": 2707,
      "Ġavail": 2708,
      "rated": 2709,
      "ites": 2710,
      "iding": 2711,
      "Ġviol": 2712,
      "ĠVal": 2713,
      "Ġ187": 2714,
      "Ġgoals": 2715,
      "Ġ1970": 2716,
      "ĠMichael": 2717,
      "uation": 2718,
      "Ġthink": 2719,
      "gypt": 2720,
      "Ġwinds": 2721,
      "heast": 2722,
      "Ġcivil": 2723,
      "ĠSm": 2724,
      "ĠSqu": 2725,
      "Ġabove": 2726,
      "Ġdiss": 2727,
      "Ġinvest": 2728,
      "Ġincreased": 2729,
      "Ġpers": 2730,
      "ĠHel": 2731,
      "ĠFe": 2732,
      "ĠEgypt": 2733,
      "hens": 2734,
      "Ġpreviously": 2735,
      "ĠÂ£": 2736,
      "wh": 2737,
      "itz": 2738,
      "ĠDesp": 2739,
      "ula": 2740,
      "pper": 2741,
      "ĠThom": 2742,
      "Ġsoon": 2743,
      "Ġreplaced": 2744,
      "Ġcommercial": 2745,
      "asion": 2746,
      "ributed": 2747,
      "ĠRichard": 2748,
      "BC": 2749,
      "gl": 2750,
      "erved": 2751,
      "Ġmust": 2752,
      "ĠAc": 2753,
      "ĠAg": 2754,
      "ĠApp": 2755,
      "Ġask": 2756,
      "ĠGr": 2757,
      "Ġinterview": 2758,
      "Ġmaint": 2759,
      "ĠSuper": 2760,
      "Ġbusiness": 2761,
      "onc": 2762,
      "Ġclear": 2763,
      "Ġpain": 2764,
      "ste": 2765,
      "olic": 2766,
      "ĠWhe": 2767,
      "ription": 2768,
      "ĠDespite": 2769,
      "ĠCorp": 2770,
      "Ġly": 2771,
      "ĠDep": 2772,
      "osing": 2773,
      "abit": 2774,
      "Ġwriter": 2775,
      "ĠQue": 2776,
      "ĠBrown": 2777,
      "Ġquarter": 2778,
      "ming": 2779,
      "Ġtrib": 2780,
      "Ġthreat": 2781,
      "ĠMont": 2782,
      "Ġ2000": 2783,
      "Ġunc": 2784,
      "ĠÂ°": 2785,
      "ĠHenry": 2786,
      "AF": 2787,
      "atory": 2788,
      "ania": 2789,
      "Ġmph": 2790,
      "ĠOs": 2791,
      "Ġunits": 2792,
      "oney": 2793,
      "ĠCanada": 2794,
      "Ġestimated": 2795,
      "Ã³": 2796,
      "Ġpen": 2797,
      "ulf": 2798,
      "iff": 2799,
      "aker": 2800,
      "ibility": 2801,
      "Ġ1990": 2802,
      "Ġspecific": 2803,
      "Ġcourt": 2804,
      "ĠOldham": 2805,
      "face": 2806,
      "Ġpur": 2807,
      "Ġreact": 2808,
      "acing": 2809,
      "Ġ36": 2810,
      "Ġclaimed": 2811,
      "ĠJapanese": 2812,
      "Ġjoined": 2813,
      "Ġhighest": 2814,
      "band": 2815,
      "men": 2816,
      "ĠTimes": 2817,
      "ulated": 2818,
      "ching": 2819,
      "Ġplaced": 2820,
      "Ġcontr": 2821,
      "ĠCarol": 2822,
      "Ġinvolved": 2823,
      "ecutive": 2824,
      "ĠPresident": 2825,
      "for": 2826,
      "Ġwestern": 2827,
      "Ġfly": 2828,
      "ĠSun": 2829,
      "ĠGovern": 2830,
      "Ġpriv": 2831,
      "Ġsigned": 2832,
      "Ġsuggested": 2833,
      "leg": 2834,
      "ĠMos": 2835,
      "elled": 2836,
      "Ġ45": 2837,
      "Ġ183": 2838,
      "Ġparts": 2839,
      "Ġsyn": 2840,
      "ĠCard": 2841,
      "ĠMy": 2842,
      "ĠGold": 2843,
      "Ġintens": 2844,
      "ĠIndia": 2845,
      "ĠOlivier": 2846,
      "Ġtru": 2847,
      "Ġhous": 2848,
      "ĠSchool": 2849,
      "thlet": 2850,
      "ĠLater": 2851,
      "Ġproper": 2852,
      "Ġchange": 2853,
      "Ġleague": 2854,
      "Ġitself": 2855,
      "ĠVietn": 2856,
      "mb": 2857,
      "Ġesp": 2858,
      "Ġinj": 2859,
      "Ġdon": 2860,
      "ĠCong": 2861,
      "ĠHall": 2862,
      "Ġshot": 2863,
      "Ġrap": 2864,
      "anna": 2865,
      "Ġaverage": 2866,
      "ĠMexico": 2867,
      "ĠIrish": 2868,
      "Ġtaking": 2869,
      "Ġhard": 2870,
      "ĠNot": 2871,
      "ume": 2872,
      "Ġavailable": 2873,
      "Ġey": 2874,
      "urg": 2875,
      "Ġexcept": 2876,
      "Ġscene": 2877,
      "ronic": 2878,
      "Ġtransport": 2879,
      "Ġtransfer": 2880,
      "Ġbrother": 2881,
      "Ġbreak": 2882,
      "ready": 2883,
      "Ġintroduced": 2884,
      "Ġhit": 2885,
      "ĠPac": 2886,
      "Ġwhose": 2887,
      "Ġheav": 2888,
      "Ġrecording": 2889,
      "Ġvillage": 2890,
      "Ġwood": 2891,
      "Ġstop": 2892,
      "Ġrace": 2893,
      "ĠStar": 2894,
      "ĠVar": 2895,
      "Ġsubject": 2896,
      "Ġrail": 2897,
      "porary": 2898,
      "ĠThomas": 2899,
      "go": 2900,
      "rd": 2901,
      "ximately": 2902,
      "Ġslow": 2903,
      "Ġ60": 2904,
      "Ġphys": 2905,
      "Ġgrad": 2906,
      "Ġreligious": 2907,
      "Ġfr": 2908,
      "Ġmem": 2909,
      "Ġnetwork": 2910,
      "achel": 2911,
      "Ġgra": 2912,
      "Ġeduc": 2913,
      "Ġtold": 2914,
      "Ġnine": 2915,
      "Ġnames": 2916,
      "ĠNY": 2917,
      "Ġabs": 2918,
      "Ġremov": 2919,
      "ĠBritain": 2920,
      "Ġshows": 2921,
      "Ġ1960": 2922,
      "Ġdamaged": 2923,
      "iqu": 2924,
      "Ġtest": 2925,
      "Ġcru": 2926,
      "arily": 2927,
      "Ġpiec": 2928,
      "Ġindepend": 2929,
      "ĠScient": 2930,
      "Ġincreasing": 2931,
      "Ġturned": 2932,
      "Ġcapital": 2933,
      "Ġsocial": 2934,
      "ĠRepublic": 2935,
      "gu": 2936,
      "Ġap": 2937,
      "oration": 2938,
      "Ġcal": 2939,
      "enes": 2940,
      "Ġlines": 2941,
      "Ġgive": 2942,
      "ĠHurricane": 2943,
      "ĠPo": 2944,
      "ĠGreat": 2945,
      "Ġchap": 2946,
      "ĠThat": 2947,
      "ĠGuitar": 2948,
      "Ġstructure": 2949,
      "aled": 2950,
      "ĠMany": 2951,
      "ĠAnt": 2952,
      "Ġfeel": 2953,
      "Ġnearly": 2954,
      "Ġdeterm": 2955,
      "Ġappointed": 2956,
      "Ġdespite": 2957,
      "Ġsize": 2958,
      "Ġcycl": 2959,
      "odies": 2960,
      "ĠUnion": 2961,
      "ĠZeal": 2962,
      "Ġcomplet": 2963,
      "Ġcommunity": 2964,
      "hib": 2965,
      "Ġ?": 2966,
      "Ġbill": 2967,
      "Ġinternational": 2968,
      "Ġden": 2969,
      "Ġdate": 2970,
      "Ġliter": 2971,
      "Ġeconom": 2972,
      "ĠLa": 2973,
      "ateg": 2974,
      "rang": 2975,
      "Ġ184": 2976,
      "ĠArt": 2977,
      "Ġsurround": 2978,
      "Ġpassed": 2979,
      "Ġfut": 2980,
      "Ġmight": 2981,
      "oul": 2982,
      "ecially": 2983,
      "irt": 2984,
      "Ġwithd": 2985,
      "rian": 2986,
      "bert": 2987,
      "hedral": 2988,
      "Ġscore": 2989,
      "Ġimmedi": 2990,
      "inese": 2991,
      "Ġoccup": 2992,
      "Ġestablish": 2993,
      "Ġdebut": 2994,
      "Ġinitially": 2995,
      "osaurus": 2996,
      "Ġcertain": 2997,
      "lict": 2998,
      "Ġwinning": 2999,
      "Ġcas": 3000,
      "Ġpot": 3001,
      "Ġtow": 3002,
      "ĠMa": 3003,
      "Ġalready": 3004,
      "ĠEver": 3005,
      "Ġdeal": 3006,
      "Ġdisp": 3007,
      "Ġassist": 3008,
      "Ġgoing": 3009,
      "Ġparticip": 3010,
      "Ġarchae": 3011,
      "ĠPacific": 3012,
      "Ġfailed": 3013,
      "ication": 3014,
      "Ġstates": 3015,
      "ĠChinese": 3016,
      "ĠEarly": 3017,
      "ĠZealand": 3018,
      "fect": 3019,
      "ha": 3020,
      "ires": 3021,
      "Ġmale": 3022,
      "Ġdoc": 3023,
      "ĠDon": 3024,
      "rag": 3025,
      "ĠJin": 3026,
      "ability": 3027,
      "Ġaccording": 3028,
      "Ġrain": 3029,
      "Ġtraining": 3030,
      "Ġforest": 3031,
      "Ġlanguage": 3032,
      "Ġprobably": 3033,
      "Ġespecially": 3034,
      "den": 3035,
      "Ġfood": 3036,
      "ĠSing": 3037,
      "ĠCath": 3038,
      "ĠDr": 3039,
      "Ġkey": 3040,
      "Ġ2002": 3041,
      "ification": 3042,
      "Ġdepict": 3043,
      "Ġminor": 3044,
      "Ġissue": 3045,
      "nel": 3046,
      "Ġaut": 3047,
      "Ġdaugh": 3048,
      "ĠPri": 3049,
      "ĠFilm": 3050,
      "ĠLaw": 3051,
      "Ġstudio": 3052,
      "ĠIII": 3053,
      "ĠTom": 3054,
      "ady": 3055,
      "Ġforward": 3056,
      "ĠPeter": 3057,
      "Ġspent": 3058,
      "Ġincludes": 3059,
      "ference": 3060,
      "Ġarrived": 3061,
      "Ġordered": 3062,
      "ĠHistory": 3063,
      "ĠWheeler": 3064,
      "aut": 3065,
      "ship": 3066,
      "ises": 3067,
      "ĠAwards": 3068,
      "ĠSch": 3069,
      "ilities": 3070,
      "aval": 3071,
      "Ġarmy": 3072,
      "Ġenough": 3073,
      "Ġremaining": 3074,
      "Ġblock": 3075,
      "Ġvisit": 3076,
      "ĠCanadian": 3077,
      "ĠAngel": 3078,
      "stein": 3079,
      "ties": 3080,
      "onse": 3081,
      "Ġfail": 3082,
      "Ġdro": 3083,
      "ĠNavy": 3084,
      "Ġsometimes": 3085,
      "Ġmixed": 3086,
      "back": 3087,
      "lor": 3088,
      "zz": 3089,
      "Ġdi": 3090,
      "ĠTer": 3091,
      "ĠSoc": 3092,
      "owl": 3093,
      "ĠRose": 3094,
      "Ġcome": 3095,
      "ĠUK": 3096,
      "Ġcomplete": 3097,
      "Ġapproximately": 3098,
      "Ġreviews": 3099,
      "Ġrequired": 3100,
      "ĠAssoci": 3101,
      "orial": 3102,
      "Ġtouch": 3103,
      "ĠCreek": 3104,
      "Ġlower": 3105,
      "Ġlatter": 3106,
      "quar": 3107,
      "ranch": 3108,
      "rics": 3109,
      "Ġimm": 3110,
      "Ġcenter": 3111,
      "to": 3112,
      "ĠMer": 3113,
      "ĠMet": 3114,
      "lymp": 3115,
      "ĠPenn": 3116,
      "ĠInf": 3117,
      "Ġremain": 3118,
      "Ġbeginning": 3119,
      "ĠAfrica": 3120,
      "down": 3121,
      "inct": 3122,
      "inist": 3123,
      "stant": 3124,
      "ĠHol": 3125,
      "ĠOlymp": 3126,
      "ĠVirgin": 3127,
      "Ġsem": 3128,
      "Ġwoman": 3129,
      "etic": 3130,
      "ĠStud": 3131,
      "Ġjourn": 3132,
      "Ġdecision": 3133,
      "Ġprevent": 3134,
      "Ġlimited": 3135,
      "iest": 3136,
      "rack": 3137,
      "under": 3138,
      "Ġhapp": 3139,
      "Ġdead": 3140,
      "Ġ38": 3141,
      "Ġusually": 3142,
      "Ġbetter": 3143,
      "Ġstudents": 3144,
      "Ġadditional": 3145,
      "Ġchanges": 3146,
      "ĠRegiment": 3147,
      "edy": 3148,
      "Ġstay": 3149,
      "ĠRout": 3150,
      "ĠRachel": 3151,
      "ĠNort": 3152,
      "ĠJe": 3153,
      "aby": 3154,
      "Ġpresident": 3155,
      "Ġemb": 3156,
      "Ġrunning": 3157,
      "Ġresponse": 3158,
      "Ġsch": 3159,
      "adron": 3160,
      "Ġended": 3161,
      "Ġpositive": 3162,
      "Ġlarger": 3163,
      "ĠScott": 3164,
      "Ġconcern": 3165,
      "gar": 3166,
      "erat": 3167,
      "Ġmention": 3168,
      "ĠTV": 3169,
      "ĠAward": 3170,
      "Ġ80": 3171,
      "Ġquest": 3172,
      "Ġsupported": 3173,
      "Ġtype": 3174,
      "Ġmagazine": 3175,
      "ios": 3176,
      "uals": 3177,
      "ĠFort": 3178,
      "ĠJer": 3179,
      "Ġnotes": 3180,
      "Ġdepression": 3181,
      "Ġpolice": 3182,
      "ĠCharles": 3183,
      "Ġpressure": 3184,
      "Ġprior": 3185,
      "oor": 3186,
      "reak": 3187,
      "Ġwide": 3188,
      "Ġbirth": 3189,
      "enty": 3190,
      "Ġcompl": 3191,
      "Ġamount": 3192,
      "Ġbirds": 3193,
      "Ġshown": 3194,
      "Ġ1995": 3195,
      "Ġrelated": 3196,
      "ĠBillboard": 3197,
      "Ġface": 3198,
      "uments": 3199,
      "Ġ75": 3200,
      "Ġfeature": 3201,
      "rief": 3202,
      "Ġfifth": 3203,
      "Ġfuture": 3204,
      "rat": 3205,
      "aring": 3206,
      "ĠHot": 3207,
      "ĠUnder": 3208,
      "Ġappl": 3209,
      "Ġ1980": 3210,
      "Ġprovide": 3211,
      "Ġdefeated": 3212,
      "com": 3213,
      "Ġche": 3214,
      "ani": 3215,
      "Ġder": 3216,
      "ils": 3217,
      "ĠCamp": 3218,
      "ĠHill": 3219,
      "Ġstaff": 3220,
      "Ġanc": 3221,
      "arts": 3222,
      "Ġdiscovered": 3223,
      "bers": 3224,
      "Ġsat": 3225,
      "Ġsil": 3226,
      "Ġsection": 3227,
      "ĠSy": 3228,
      "ĠPat": 3229,
      "ĠRes": 3230,
      "ĠOper": 3231,
      "ifa": 3232,
      "Ġtemper": 3233,
      "ĠRoute": 3234,
      "hou": 3235,
      "ney": 3236,
      "Ġcm": 3237,
      "enon": 3238,
      "Ġdoll": 3239,
      "ĠBel": 3240,
      "ĠFI": 3241,
      "ĠWestern": 3242,
      "riage": 3243,
      "ishop": 3244,
      "Ġbecoming": 3245,
      "ĠFrank": 3246,
      "Ġfrequ": 3247,
      "gely": 3248,
      "oo": 3249,
      "eding": 3250,
      "Ġword": 3251,
      "rael": 3252,
      "ĠLight": 3253,
      "ĠColle": 3254,
      "ĠArab": 3255,
      "ĠRh": 3256,
      "ĠWood": 3257,
      "ands": 3258,
      "Ġvot": 3259,
      "Ġexam": 3260,
      "ector": 3261,
      "oke": 3262,
      "key": 3263,
      "oys": 3264,
      "Ġsmaller": 3265,
      "uf": 3266,
      "itte": 3267,
      "Ġflow": 3268,
      "Ġdomin": 3269,
      "ĠTur": 3270,
      "idents": 3271,
      "unt": 3272,
      "raw": 3273,
      "Ġintended": 3274,
      "Ġpercent": 3275,
      "Ġscreen": 3276,
      "Ġcolon": 3277,
      "Ġgroups": 3278,
      "Ġidea": 3279,
      "ĠScientology": 3280,
      "well": 3281,
      "inent": 3282,
      "Ġfir": 3283,
      "Ġfleet": 3284,
      "asy": 3285,
      "iforn": 3286,
      "ĠYear": 3287,
      "Ġthemsel": 3288,
      "Ġmostly": 3289,
      "Ġmetres": 3290,
      "Ġconclud": 3291,
      "Ġdiscuss": 3292,
      "ĠHaifa": 3293,
      "Ġradio": 3294,
      "Ġprofessional": 3295,
      "Ġthemselves": 3296,
      "gen": 3297,
      "ses": 3298,
      "era": 3299,
      "anies": 3300,
      "ĠRuss": 3301,
      "ples": 3302,
      "Ġ2016": 3303,
      "Ġmusical": 3304,
      "Ġsurface": 3305,
      "Ġminutes": 3306,
      "Ġcaptured": 3307,
      "Ġreferred": 3308,
      "ĠCroat": 3309,
      "Ġlikely": 3310,
      "uing": 3311,
      "anish": 3312,
      "ĠSince": 3313,
      "ĠMil": 3314,
      "imate": 3315,
      "cean": 3316,
      "ĠOver": 3317,
      "iano": 3318,
      "Ġoffice": 3319,
      "Ġlargely": 3320,
      "ĠParliament": 3321,
      "Ġproblems": 3322,
      "ĠAssociation": 3323,
      "ror": 3324,
      "Ġtry": 3325,
      "Ġlab": 3326,
      "Ġlink": 3327,
      "ĠHow": 3328,
      "rain": 3329,
      "ĠUp": 3330,
      "Ġund": 3331,
      "Ġcontem": 3332,
      "Ġindic": 3333,
      "Ġentered": 3334,
      "Ġmedia": 3335,
      "ĠPortug": 3336,
      "Ġsummer": 3337,
      "quarters": 3338,
      "iser": 3339,
      "isions": 3340,
      "Ġmakes": 3341,
      "ĠSov": 3342,
      "ĠNic": 3343,
      "ĠOtt": 3344,
      "Ġshoot": 3345,
      "ĠVer": 3346,
      "Ġens": 3347,
      "orning": 3348,
      "Ġmoving": 3349,
      "ĠIsrael": 3350,
      "ĠEarth": 3351,
      "Ġobserv": 3352,
      "Ġbroadcast": 3353,
      "Ġself": 3354,
      "Ġpair": 3355,
      "Ġcontains": 3356,
      "ĠCaliforn": 3357,
      "Ġkeep": 3358,
      "Ġconstructed": 3359,
      "sen": 3360,
      "Ġinn": 3361,
      "Ġmoney": 3362,
      "lex": 3363,
      "ĠSam": 3364,
      "ĠCouncil": 3365,
      "ĠBey": 3366,
      "Ġconcept": 3367,
      "Ġvoice": 3368,
      "ĠInter": 3369,
      "Ġsea": 3370,
      "Ġ1999": 3371,
      "Ġparen": 3372,
      "ĠSur": 3373,
      "Ġnature": 3374,
      "iva": 3375,
      "ĠHaw": 3376,
      "ĠRoss": 3377,
      "ruit": 3378,
      "Ġadop": 3379,
      "ylv": 3380,
      "Ġguitar": 3381,
      "Ġeffects": 3382,
      "Ġcele": 3383,
      "ĠGalvest": 3384,
      "ĠGalveston": 3385,
      "kan": 3386,
      "ergy": 3387,
      "Ġstories": 3388,
      "ĠChic": 3389,
      "onym": 3390,
      "Ġ1950": 3391,
      "Ġgrant": 3392,
      "Ġmajority": 3393,
      "Ġlisted": 3394,
      "Ġranked": 3395,
      "ĠJewish": 3396,
      "het": 3397,
      "Ġconsist": 3398,
      "Ġcreate": 3399,
      "hester": 3400,
      "Ġexperience": 3401,
      "Ġresearch": 3402,
      "ma": 3403,
      "Ġcle": 3404,
      "urity": 3405,
      "Ġleaving": 3406,
      "Ġuns": 3407,
      "Ġ70": 3408,
      "Ġmeth": 3409,
      "ĠBrad": 3410,
      "Ġcritical": 3411,
      "Ġfavor": 3412,
      "Ġschol": 3413,
      "Ġbrief": 3414,
      "Ġthus": 3415,
      "ĠMart": 3416,
      "owler": 3417,
      "aven": 3418,
      "Ġ33": 3419,
      "ously": 3420,
      "Ġscript": 3421,
      "Ġearth": 3422,
      "Ġcontroll": 3423,
      "Ġprimary": 3424,
      "eratops": 3425,
      "pool": 3426,
      "rison": 3427,
      "oud": 3428,
      "ĠServ": 3429,
      "Ġlived": 3430,
      "Ġalways": 3431,
      "ership": 3432,
      "Ġdeep": 3433,
      "ĠAnother": 3434,
      "Ġunderst": 3435,
      "Ġfilms": 3436,
      "Ġlocation": 3437,
      "anks": 3438,
      "Ġruns": 3439,
      "Ġofficers": 3440,
      "Ġgods": 3441,
      "Ġagreed": 3442,
      "Ġlyrics": 3443,
      "Ġri": 3444,
      "atively": 3445,
      "change": 3446,
      "teen": 3447,
      "Ġrare": 3448,
      "ospital": 3449,
      "Ġlaunched": 3450,
      "ĠCalifornia": 3451,
      "dle": 3452,
      "Ġcounter": 3453,
      "Ġded": 3454,
      "aches": 3455,
      "ĠPet": 3456,
      "illery": 3457,
      "order": 3458,
      "lands": 3459,
      "Ġattract": 3460,
      "Ġprem": 3461,
      "Ġteams": 3462,
      "Ġminute": 3463,
      "Ġculture": 3464,
      "Ġquickly": 3465,
      "ĠCatholic": 3466,
      "awn": 3467,
      "ras": 3468,
      "Ġx": 3469,
      "Ġfans": 3470,
      "ĠMr": 3471,
      "ĠIf": 3472,
      "ĠFore": 3473,
      "ĠForm": 3474,
      "Ġmeant": 3475,
      "Ġamb": 3476,
      "Ġepisodes": 3477,
      "Ġproposed": 3478,
      "Ġoccurred": 3479,
      "ĠChicago": 3480,
      "lo": 3481,
      "oir": 3482,
      "ĠSaint": 3483,
      "Ġlo": 3484,
      "imum": 3485,
      "Ġwhether": 3486,
      "Ġadapt": 3487,
      "Ġ400": 3488,
      "Ġassigned": 3489,
      "Ġaccess": 3490,
      "Ġincrease": 3491,
      "AS": 3492,
      "Ġcred": 3493,
      "Ġdram": 3494,
      "Ġhop": 3495,
      "ĠTre": 3496,
      "ĠBec": 3497,
      "ĠLatin": 3498,
      "umn": 3499,
      "Ġ32": 3500,
      "Ġpoet": 3501,
      "Ġcann": 3502,
      "Ġproduct": 3503,
      "Ġforms": 3504,
      "Ġtraffic": 3505,
      "Ġappears": 3506,
      "Ġdefeat": 3507,
      "Ġchanged": 3508,
      "Ġdestroyed": 3509,
      "iant": 3510,
      "Ġtons": 3511,
      "Ġlog": 3512,
      "ĠBen": 3513,
      "Ġasp": 3514,
      "ĠNix": 3515,
      "Ġcommission": 3516,
      "Ġtrade": 3517,
      "ĠEnter": 3518,
      "ĠArch": 3519,
      "Ġlonger": 3520,
      "ĠBattle": 3521,
      "ĠCentral": 3522,
      "Ġmeaning": 3523,
      "mas": 3524,
      "oned": 3525,
      "Ġbound": 3526,
      "anced": 3527,
      "rol": 3528,
      "Ġmom": 3529,
      "ĠSever": 3530,
      "ĠCamb": 3531,
      "ĠMey": 3532,
      "ĠHo": 3533,
      "ortun": 3534,
      "Ġran": 3535,
      "ĠAlice": 3536,
      "Ġjob": 3537,
      "Ġtheme": 3538,
      "Ġnumbers": 3539,
      "Ġprinc": 3540,
      "ĠScot": 3541,
      "Ġ1940": 3542,
      "undred": 3543,
      "Ġsoldiers": 3544,
      "Ġcompetition": 3545,
      "Ġnucle": 3546,
      "Ã³n": 3547,
      "ex": 3548,
      "Ġbomb": 3549,
      "Ġreach": 3550,
      "Ġgirl": 3551,
      "thing": 3552,
      "ĠDj": 3553,
      "Ġkil": 3554,
      "Ġleave": 3555,
      "ĠItal": 3556,
      "Ġnewsp": 3557,
      "Ġacqu": 3558,
      "Ġcarried": 3559,
      "ĠTex": 3560,
      "Ġawarded": 3561,
      "Ġfocus": 3562,
      "ĠNorthern": 3563,
      "tar": 3564,
      "Ġ300": 3565,
      "Ġ1998": 3566,
      "Ġconcert": 3567,
      "Ġconsider": 3568,
      "Ġconducted": 3569,
      "Ġprivate": 3570,
      "Ġdaughter": 3571,
      "NA": 3572,
      "ening": 3573,
      "anas": 3574,
      "rown": 3575,
      "ĠTw": 3576,
      "Ġnatural": 3577,
      "ows": 3578,
      "ĠJam": 3579,
      "Ġoverall": 3580,
      "Ġenv": 3581,
      "Ġ90": 3582,
      "Ġrecords": 3583,
      "ĠSecond": 3584,
      "Ġsubsequently": 3585,
      "cing": 3586,
      "itation": 3587,
      "Ġcause": 3588,
      "Ġtourn": 3589,
      "ĠTra": 3590,
      "Ġthick": 3591,
      "Ġemer": 3592,
      "ĠBC": 3593,
      "imin": 3594,
      "usband": 3595,
      "ĠDel": 3596,
      "ĠLiver": 3597,
      "Ġdeg": 3598,
      "Ġplans": 3599,
      "ĠVilla": 3600,
      "ĠAlkan": 3601,
      "Ġdism": 3602,
      "Ġ1930": 3603,
      "Ġanti": 3604,
      "Ġfighting": 3605,
      "bar": 3606,
      "ga": 3607,
      "lin": 3608,
      "Ġult": 3609,
      "Ġtakes": 3610,
      "Ġsus": 3611,
      "eds": 3612,
      "itor": 3613,
      "itude": 3614,
      "Ġbox": 3615,
      "Ġrein": 3616,
      "Ġlay": 3617,
      "Ġgraph": 3618,
      "Ġkind": 3619,
      "ective": 3620,
      "Ġwhole": 3621,
      "Ġ1993": 3622,
      "Ġelection": 3623,
      "ĠPolish": 3624,
      "Ġinfluence": 3625,
      "Ġcommented": 3626,
      "Ġdouble": 3627,
      "Ġindustry": 3628,
      "ken": 3629,
      "Ġ+": 3630,
      "ĠTay": 3631,
      "ĠTour": 3632,
      "ĠMinn": 3633,
      "Ġserious": 3634,
      "Ġfinally": 3635,
      "Ġbring": 3636,
      "Ġasked": 3637,
      "ĠNixon": 3638,
      "ĠLiverpool": 3639,
      "Ġtar": 3640,
      "Ġdig": 3641,
      "Ġthrow": 3642,
      "alled": 3643,
      "Ġupper": 3644,
      "Ġcompared": 3645,
      "ĠIts": 3646,
      "Ġjud": 3647,
      "Ġcentre": 3648,
      "Ġending": 3649,
      "ĠGeorg": 3650,
      "ĠSomers": 3651,
      "stitute": 3652,
      "Ġgreater": 3653,
      "Ġmethod": 3654,
      "ny": 3655,
      "Ġpurch": 3656,
      "Ġdone": 3657,
      "Ġreject": 3658,
      "ĠMal": 3659,
      "ĠBack": 3660,
      "olk": 3661,
      "ĠLady": 3662,
      "istics": 3663,
      "ells": 3664,
      "Ġunable": 3665,
      "Ġ47": 3666,
      "Ġflight": 3667,
      "ologist": 3668,
      "Ġpositions": 3669,
      "Ġaccomp": 3670,
      "itting": 3671,
      "Ġmarried": 3672,
      "ittee": 3673,
      "ĠTexas": 3674,
      "II": 3675,
      "ging": 3676,
      "Ġour": 3677,
      "Ġbig": 3678,
      "alys": 3679,
      "ĠHum": 3680,
      "ĠFoot": 3681,
      "Ġ39": 3682,
      "aily": 3683,
      "Ġbuildings": 3684,
      "Ġpersonal": 3685,
      "Ġmarket": 3686,
      "Ġstandard": 3687,
      "ĠMosley": 3688,
      "Ġrapid": 3689,
      "ĠSomerset": 3690,
      "ĠTropical": 3691,
      "ĠSol": 3692,
      "Ġgot": 3693,
      "ĠRob": 3694,
      "agon": 3695,
      "Ġyet": 3696,
      "ĠVict": 3697,
      "Ġparty": 3698,
      "Ġearned": 3699,
      "Ġbooks": 3700,
      "TV": 3701,
      "Ġmor": 3702,
      "Ġdark": 3703,
      "ĠTenn": 3704,
      "ĠCour": 3705,
      "Ġliving": 3706,
      "Ġhero": 3707,
      "ĠOut": 3708,
      "ĠThree": 3709,
      "Ġ1996": 3710,
      "Ġcollect": 3711,
      "Ġphot": 3712,
      "Ġconflict": 3713,
      "Ġbegins": 3714,
      "Ġissued": 3715,
      "ĠBusch": 3716,
      "car": 3717,
      "Ġmur": 3718,
      "Ġdom": 3719,
      "ĠSal": 3720,
      "ada": 3721,
      "ĠBob": 3722,
      "ĠFin": 3723,
      "ĠLake": 3724,
      "ria": 3725,
      "Ġdirectly": 3726,
      "Ġmarked": 3727,
      "Ġterms": 3728,
      "aught": 3729,
      "Ġtraditional": 3730,
      "house": 3731,
      "Ġsal": 3732,
      "umed": 3733,
      "Ġhealth": 3734,
      "Ġaband": 3735,
      "Ġscenes": 3736,
      "athan": 3737,
      "Ġmovement": 3738,
      "ĠSpanish": 3739,
      "ĠChristmas": 3740,
      "Ġmarriage": 3741,
      "Ġstatus": 3742,
      "ĠAfrican": 3743,
      "ĠTaylor": 3744,
      "rey": 3745,
      "Ġpath": 3746,
      "ĠFowler": 3747,
      "bery": 3748,
      "ĠCommand": 3749,
      "Ġslight": 3750,
      "Ġhelped": 3751,
      "Ġfigure": 3752,
      "ĠSeveral": 3753,
      "rical": 3754,
      "itch": 3755,
      "Ġbatter": 3756,
      "Ġpil": 3757,
      "ĠCross": 3758,
      "Ġnorm": 3759,
      "adm": 3760,
      "aded": 3761,
      "ĠDem": 3762,
      "ĠLou": 3763,
      "odon": 3764,
      "eway": 3765,
      "ĠStorm": 3766,
      "Ġsched": 3767,
      "embly": 3768,
      "Ġstarting": 3769,
      "Ġattacks": 3770,
      "Ġschools": 3771,
      "Ġexperi": 3772,
      "Ġinformation": 3773,
      "Ġsuffered": 3774,
      "Ġplanned": 3775,
      "bury": 3776,
      "anz": 3777,
      "Ġhusband": 3778,
      "Ġlif": 3779,
      "ĠIll": 3780,
      "Ġgiving": 3781,
      "ĠNor": 3782,
      "ĠJust": 3783,
      "Ġrh": 3784,
      "Ġperformances": 3785,
      "Ġassociated": 3786,
      "Ġinspired": 3787,
      "Ġsource": 3788,
      "ĠInfantry": 3789,
      "ĠSoviet": 3790,
      "ien": 3791,
      "Ġdivision": 3792,
      "cend": 3793,
      "ĠJane": 3794,
      "ify": 3795,
      "Ġplot": 3796,
      "Ġclosed": 3797,
      "ounds": 3798,
      "ibly": 3799,
      "Ġtransl": 3800,
      "ĠCont": 3801,
      "Ġpresented": 3802,
      "Ġinitial": 3803,
      "Ġcondoms": 3804,
      "ĠParty": 3805,
      "Ġmachine": 3806,
      "tation": 3807,
      "atre": 3808,
      "ican": 3809,
      "ĠTrans": 3810,
      "imb": 3811,
      "ĠGo": 3812,
      "Ġvia": 3813,
      "ĠInn": 3814,
      "Ġroom": 3815,
      "Ġimage": 3816,
      "Ġraised": 3817,
      "Ġpresence": 3818,
      "Ġpolic": 3819,
      "Ġgreatest": 3820,
      "ĠSeries": 3821,
      "Ġeducation": 3822,
      "ares": 3823,
      "like": 3824,
      "sylv": 3825,
      "uff": 3826,
      "erve": 3827,
      "Ġfell": 3828,
      "Ġinters": 3829,
      "Ġpay": 3830,
      "Ġhundred": 3831,
      "ĠTem": 3832,
      "ĠSix": 3833,
      "ĠCast": 3834,
      "olf": 3835,
      "ĠLong": 3836,
      "Ġchall": 3837,
      "ections": 3838,
      "Ġunit": 3839,
      "Ġuses": 3840,
      "Ġ42": 3841,
      "Ġwriters": 3842,
      "Ġcontinue": 3843,
      "Ġnearby": 3844,
      "ĠClub": 3845,
      "ĠParis": 3846,
      "orpor": 3847,
      "ĠCarolina": 3848,
      "Ġdocument": 3849,
      "ĠPennsylv": 3850,
      "ĠVirginia": 3851,
      "Ġsusp": 3852,
      "iated": 3853,
      "rate": 3854,
      "Ġpark": 3855,
      "ĠRam": 3856,
      "ĠLive": 3857,
      "Ġprep": 3858,
      "iami": 3859,
      "Ġcomplex": 3860,
      "Ġcovered": 3861,
      "Ã¡n": 3862,
      "Ġcollection": 3863,
      "Ġcyclone": 3864,
      "rid": 3865,
      "Ġtalk": 3866,
      "itect": 3867,
      "Ġhabit": 3868,
      "ĠMill": 3869,
      "imony": 3870,
      "Ġconver": 3871,
      "essa": 3872,
      "Ġspace": 3873,
      "Ġcomposed": 3874,
      "Ġenj": 3875,
      "Ġweap": 3876,
      "inner": 3877,
      "Ġannual": 3878,
      "Ġservices": 3879,
      "ĠAcad": 3880,
      "ĠQueen": 3881,
      "ĠCollege": 3882,
      "ĠMeyer": 3883,
      "iny": 3884,
      "Ġbodies": 3885,
      "Ġreally": 3886,
      "ether": 3887,
      "ĠWater": 3888,
      "Ġsev": 3889,
      "Ġ1997": 3890,
      "Ġnumerous": 3891,
      "Ġmetal": 3892,
      "Ġextended": 3893,
      "Ġcommander": 3894,
      "Ġcathedral": 3895,
      "Ġwaters": 3896,
      "Ġfigures": 3897,
      "Ġproducer": 3898,
      "Ġterritory": 3899,
      "oncÃ©": 3900,
      "ĠBeyoncÃ©": 3901,
      "een": 3902,
      "tain": 3903,
      "Ġhot": 3904,
      "Ġthings": 3905,
      "ĠMiami": 3906,
      "uries": 3907,
      "ĠDan": 3908,
      "ĠDam": 3909,
      "ĠLo": 3910,
      "ĠJose": 3911,
      "anta": 3912,
      "pted": 3913,
      "ports": 3914,
      "ĠGermany": 3915,
      "ĠMuseum": 3916,
      "Ġsomething": 3917,
      "Ġvocals": 3918,
      "Ġproteins": 3919,
      "Ġindividual": 3920,
      "ped": 3921,
      "zy": 3922,
      "ĠTheir": 3923,
      "ĠGames": 3924,
      "ĠNations": 3925,
      "ipal": 3926,
      "Ġ44": 3927,
      "Ġfinanc": 3928,
      "Ġartist": 3929,
      "Ġoperation": 3930,
      "ricket": 3931,
      "Ġnecess": 3932,
      "Ġinvestig": 3933,
      "ev": 3934,
      "uit": 3935,
      "Ġtax": 3936,
      "Ġsaf": 3937,
      "Ġpick": 3938,
      "Ġmorning": 3939,
      "estival": 3940,
      "ĠEr": 3941,
      "apo": 3942,
      "Ġcompanies": 3943,
      "ĠThrough": 3944,
      "Ġhighly": 3945,
      "Ġimpact": 3946,
      "Ġattacked": 3947,
      "Ġdetail": 3948,
      "Ġattempts": 3949,
      "Ġrequest": 3950,
      "ĠSomal": 3951,
      "Ġstrength": 3952,
      "ĠService": 3953,
      "ding": 3954,
      "pole": 3955,
      "vement": 3956,
      "Ġbad": 3957,
      "ĠCer": 3958,
      "ĠCrit": 3959,
      "omer": 3960,
      "ado": 3961,
      "adium": 3962,
      "ĠGar": 3963,
      "Ġrecover": 3964,
      "Ġdise": 3965,
      "ribution": 3966,
      "Ġvers": 3967,
      "Ġinteract": 3968,
      "Ġsymb": 3969,
      "Ġartillery": 3970,
      "Ġconfir": 3971,
      "Ġspeed": 3972,
      "Ġera": 3973,
      "Ġimmediately": 3974,
      "admium": 3975,
      "ĠPennsylvania": 3976,
      "track": 3977,
      "atives": 3978,
      "isation": 3979,
      "isher": 3980,
      "Ġpurs": 3981,
      "Ġpiano": 3982,
      "ĠAI": 3983,
      "ĠCons": 3984,
      "ĠMajor": 3985,
      "Ġstone": 3986,
      "ĠLi": 3987,
      "Ġplat": 3988,
      "Ġspir": 3989,
      "Ġdistance": 3990,
      "Ġallowing": 3991,
      "Ġtracks": 3992,
      "Ġpowerful": 3993,
      "Ġsituation": 3994,
      "ĠJackson": 3995,
      "Ġnuclear": 3996,
      "ĠSquadron": 3997,
      "Ġremoved": 3998,
      "Ġcelebr": 3999,
      "Ġkilomet": 4000,
      "hic": 4001,
      "onna": 4002,
      "Ġintern": 4003,
      "andid": 4004,
      "aging": 4005,
      "Ġrate": 4006,
      "Ġselected": 4007,
      "Ġsearch": 4008,
      "Ġkick": 4009,
      "iple": 4010,
      "Ġ51": 4011,
      "Ġoffered": 4012,
      "Ġsecret": 4013,
      "Ġblood": 4014,
      "Ġstudies": 4015,
      "Ġinside": 4016,
      "Ġadvance": 4017,
      "Ġvariety": 4018,
      "Ġfriends": 4019,
      "Ġneeded": 4020,
      "Ġpeaked": 4021,
      "Ġsexual": 4022,
      "Ġpurp": 4023,
      "ĠScotland": 4024,
      "ĠVictor": 4025,
      "Ġmole": 4026,
      "oura": 4027,
      "ĠSir": 4028,
      "Ġnative": 4029,
      "ĠBet": 4030,
      "ĠBoth": 4031,
      "Ġstra": 4032,
      "ĠRad": 4033,
      "ĠLos": 4034,
      "rial": 4035,
      "Ġ182": 4036,
      "izing": 4037,
      "Ġprec": 4038,
      "Ġtext": 4039,
      "Ġ1991": 4040,
      "Ġmeans": 4041,
      "Ġcoach": 4042,
      "ĠChris": 4043,
      "Ġcountries": 4044,
      "Ġheadquarters": 4045,
      "Ġattempted": 4046,
      "Ġcopies": 4047,
      "ĠFootball": 4048,
      "ãĥ": 4049,
      "ims": 4050,
      "ĠLand": 4051,
      "Ġrule": 4052,
      "ĠChina": 4053,
      "Ġscoring": 4054,
      "Ġadvant": 4055,
      "Ġhands": 4056,
      "Ġwidely": 4057,
      "Ġrespectively": 4058,
      "ĠOpen": 4059,
      "Ġresponsible": 4060,
      "Ġcasual": 4061,
      "aen": 4062,
      "hood": 4063,
      "ware": 4064,
      "alty": 4065,
      "Ġmax": 4066,
      "Ġhar": 4067,
      "ĠAlex": 4068,
      "Ġgrand": 4069,
      "Ġang": 4070,
      "send": 4071,
      "annel": 4072,
      "Ġsets": 4073,
      "Ġextrem": 4074,
      "Ġdescribes": 4075,
      "Ġappearances": 4076,
      "Ġcontrovers": 4077,
      "ĠAnderson": 4078,
      "Ġgenus": 4079,
      "Ġhigher": 4080,
      "ĠDepartment": 4081,
      "Ġtouchdown": 4082,
      "hew": 4083,
      "ĠAre": 4084,
      "iron": 4085,
      "ĠPost": 4086,
      "ĠOff": 4087,
      "aped": 4088,
      "ends": 4089,
      "Ġcanc": 4090,
      "Ġ1992": 4091,
      "Ġlands": 4092,
      "Ġconstit": 4093,
      "Ġcourse": 4094,
      "Ġmiddle": 4095,
      "Ġmagn": 4096,
      "Ġobserved": 4097,
      "ĠBraat": 4098,
      "ĠCorps": 4099,
      "Ġheavily": 4100,
      "MS": 4101,
      "me": 4102,
      "vin": 4103,
      "Ġess": 4104,
      "ĠTime": 4105,
      "ĠBre": 4106,
      "ĠNes": 4107,
      "illed": 4108,
      "Ġseem": 4109,
      "ellig": 4110,
      "Ġcompos": 4111,
      "rane": 4112,
      "Ġadult": 4113,
      "Ġdisplay": 4114,
      "Ġ1994": 4115,
      "Ġrelief": 4116,
      "ĠRev": 4117,
      "Ġbelow": 4118,
      "Ġsixth": 4119,
      "shire": 4120,
      "Ġadminist": 4121,
      "Ġreduced": 4122,
      "Ġmeeting": 4123,
      "Ġxenon": 4124,
      "Ġenjoy": 4125,
      "light": 4126,
      "esota": 4127,
      "ĠMidd": 4128,
      "ulations": 4129,
      "ĠLike": 4130,
      "umber": 4131,
      "Ġ37": 4132,
      "Ġ48": 4133,
      "Ġjump": 4134,
      "Ġ76": 4135,
      "Ġactive": 4136,
      "Ġblue": 4137,
      "Ġsinger": 4138,
      "Ġmatches": 4139,
      "Ġresulted": 4140,
      "Ġopportun": 4141,
      "Ġaudience": 4142,
      "force": 4143,
      "Ġconcluded": 4144,
      "ĠMinnesota": 4145,
      "uated": 4146,
      "Ġwing": 4147,
      "Ġcorn": 4148,
      "isk": 4149,
      "Ġpaper": 4150,
      "Ġhol": 4151,
      "Ġhour": 4152,
      "ĠCor": 4153,
      "ĠCapt": 4154,
      "ĠPit": 4155,
      "ĠEmp": 4156,
      "akapo": 4157,
      "rance": 4158,
      "Ġshell": 4159,
      "Ġinstit": 4160,
      "inkel": 4161,
      "Ġactivity": 4162,
      "Ġactivities": 4163,
      "ĠSmith": 4164,
      "Ġtrue": 4165,
      "Ġcompletely": 4166,
      "ris": 4167,
      "Ġcer": 4168,
      "isl": 4169,
      "Ġbene": 4170,
      "Ġpu": 4171,
      "room": 4172,
      "ĠSouthern": 4173,
      "ĠBol": 4174,
      "Ġstating": 4175,
      "utch": 4176,
      "ĠGreen": 4177,
      "ĠJul": 4178,
      "Ġdisapp": 4179,
      "Ġmanaged": 4180,
      "athus": 4181,
      "ĠSea": 4182,
      "ĠCenter": 4183,
      "ĠTownsend": 4184,
      "Ġrevealed": 4185,
      "ĠRosebery": 4186,
      "Ġquestion": 4187,
      "Ġcontemporary": 4188,
      "ĠHawai": 4189,
      "ĠItalian": 4190,
      "ĠMeyerbe": 4191,
      "ipped": 4192,
      "ãģ": 4193,
      "Ġwound": 4194,
      "ĠDist": 4195,
      "ĠFur": 4196,
      "ĠJim": 4197,
      "ift": 4198,
      "ĠKa": 4199,
      "Ġquality": 4200,
      "ervation": 4201,
      "Ġrefused": 4202,
      "Ġdrum": 4203,
      "Ġlevels": 4204,
      "Äģd": 4205,
      "Ġdeclared": 4206,
      "Ġtrees": 4207,
      "Ġseparate": 4208,
      "ĠNicole": 4209,
      "ĠMeyerbeer": 4210,
      "bed": 4211,
      "bird": 4212,
      "Ġpun": 4213,
      "acher": 4214,
      "ĠFinkel": 4215,
      "ecting": 4216,
      "ĠThunder": 4217,
      "rowd": 4218,
      "ĠConf": 4219,
      "Ġbrown": 4220,
      "ĠForce": 4221,
      "Ġapproach": 4222,
      "ĠWalpole": 4223,
      "Ġcontrast": 4224,
      "ĠBecause": 4225,
      "ĠFinkelstein": 4226,
      "ingu": 4227,
      "Ġtoday": 4228,
      "Ġdu": 4229,
      "ĠTessa": 4230,
      "stone": 4231,
      "ĠCat": 4232,
      "Ġlot": 4233,
      "ĠDo": 4234,
      "estic": 4235,
      "Ġuniversity": 4236,
      "peror": 4237,
      "Ġrecent": 4238,
      "ĠYue": 4239,
      "Ġwebs": 4240,
      "ĠShiva": 4241,
      "Ġbackground": 4242,
      "Ġreception": 4243,
      "Ġ150": 4244,
      "Ġfeaturing": 4245,
      "Ġrespond": 4246,
      "Ġcarry": 4247,
      "Ġmodel": 4248,
      "Ġtypically": 4249,
      "Ġhistorical": 4250,
      "Ġvocal": 4251,
      "Ġparents": 4252,
      "gal": 4253,
      "hold": 4254,
      "Ġwalk": 4255,
      "itual": 4256,
      "Ġchem": 4257,
      "Ġpow": 4258,
      "road": 4259,
      "Ġhair": 4260,
      "ĠSar": 4261,
      "Ġnation": 4262,
      "ĠPre": 4263,
      "Ġbeat": 4264,
      "ĠWild": 4265,
      "Ġ52": 4266,
      "Ġdispl": 4267,
      "Ġplays": 4268,
      "anger": 4269,
      "orship": 4270,
      "Ġactions": 4271,
      "Ġpeace": 4272,
      "Ġexpected": 4273,
      "Ġemot": 4274,
      "aha": 4275,
      "ĠBlue": 4276,
      "Ġissues": 4277,
      "ĠCharl": 4278,
      "Ġconditions": 4279,
      "Ġvehic": 4280,
      "ĠSociety": 4281,
      "ĠOttoman": 4282,
      "ĠIllino": 4283,
      "FA": 4284,
      "ka": 4285,
      "Ġinh": 4286,
      "Ġrear": 4287,
      "iled": 4288,
      "ĠBalt": 4289,
      "ĠHal": 4290,
      "ĠRo": 4291,
      "ogue": 4292,
      "Ġroy": 4293,
      "Ġbecomes": 4294,
      "Ġattention": 4295,
      "Ġweaken": 4296,
      "Ġassault": 4297,
      "Ġmainly": 4298,
      "Ġfamil": 4299,
      "Ġefforts": 4300,
      "ĠSpec": 4301,
      "arent": 4302,
      "Ġhouses": 4303,
      "eption": 4304,
      "Ġwear": 4305,
      "Ġmel": 4306,
      "Ġdraft": 4307,
      "ĠTurn": 4308,
      "ĠAv": 4309,
      "usion": 4310,
      "ĠDes": 4311,
      "ĠOm": 4312,
      "essions": 4313,
      "Ġ34": 4314,
      "Ġresidents": 4315,
      "Ġoffer": 4316,
      "ocks": 4317,
      "Ġspecim": 4318,
      "ype": 4319,
      "Ġinstr": 4320,
      "ĠAdam": 4321,
      "ĠFranc": 4322,
      "ĠHighway": 4323,
      "Ġstrugg": 4324,
      "ĠCourt": 4325,
      "ĠBraathens": 4326,
      "BA": 4327,
      "bon": 4328,
      "Ġathlet": 4329,
      "Ġsense": 4330,
      "ĠTod": 4331,
      "ĠBurn": 4332,
      "emic": 4333,
      "oses": 4334,
      "ocr": 4335,
      "Ġrecomm": 4336,
      "ĠArg": 4337,
      "Ġactually": 4338,
      "Ġcalling": 4339,
      "Ġelev": 4340,
      "Ġtitles": 4341,
      "Ġdemonst": 4342,
      "ĠHait": 4343,
      "Ġsoundtrack": 4344,
      "Ġprotein": 4345,
      "ufact": 4346,
      "onents": 4347,
      "Ġsn": 4348,
      "edo": 4349,
      "Ġcrowd": 4350,
      "enge": 4351,
      "Ġboard": 4352,
      "Ġthous": 4353,
      "Ġaltern": 4354,
      "ĠLittle": 4355,
      "Ġroles": 4356,
      "Ġpoly": 4357,
      "Ġseasons": 4358,
      "Ġwrite": 4359,
      "Ġdefend": 4360,
      "ledge": 4361,
      "ĠJohnson": 4362,
      "ĠColumb": 4363,
      "ĠDef": 4364,
      "Ġarchitect": 4365,
      "Ġaccepted": 4366,
      "Ġstruck": 4367,
      "Ġachieved": 4368,
      "ĠGovernment": 4369,
      "ĠPortugues": 4370,
      "Ġcannot": 4371,
      "cript": 4372,
      "iro": 4373,
      "ply": 4374,
      "Ġfruit": 4375,
      "anes": 4376,
      "ications": 4377,
      "Ġthr": 4378,
      "Ġnin": 4379,
      "ĠMog": 4380,
      "utions": 4381,
      "ĠFam": 4382,
      "ĠFey": 4383,
      "ĠOf": 4384,
      "pping": 4385,
      "berg": 4386,
      "ipl": 4387,
      "Ġresc": 4388,
      "Ġscient": 4389,
      "ension": 4390,
      "Ġtypes": 4391,
      "Ġpractice": 4392,
      "ĠVietnam": 4393,
      "alysis": 4394,
      "ĠPortuguese": 4395,
      "wen": 4396,
      "Ġrough": 4397,
      "Ġcam": 4398,
      "Ġfiction": 4399,
      "roll": 4400,
      "Ġdyn": 4401,
      "Ġlb": 4402,
      "ĠMat": 4403,
      "anded": 4404,
      "eller": 4405,
      "irection": 4406,
      "Ġ181": 4407,
      "Ġscul": 4408,
      "anning": 4409,
      "Ġdistinct": 4410,
      "Ġinfantry": 4411,
      "ĠSpain": 4412,
      "ĠAdd": 4413,
      "echan": 4414,
      "Ġavoid": 4415,
      "Ġprimarily": 4416,
      "ĠSecret": 4417,
      "Ġsequence": 4418,
      "ĠAcademy": 4419,
      "Ġsales": 4420,
      "ĠTint": 4421,
      "iles": 4422,
      "ĠCivil": 4423,
      "ĠBook": 4424,
      "ĠFer": 4425,
      "ĠGroup": 4426,
      "Ġplant": 4427,
      "Ġspread": 4428,
      "ĠYoung": 4429,
      "ĠEngine": 4430,
      "Ġ1986": 4431,
      "Ġowned": 4432,
      "Ġtwenty": 4433,
      "Ġelected": 4434,
      "Ġcombat": 4435,
      "Ġslightly": 4436,
      "met": 4437,
      "Ġsister": 4438,
      "ĠSarn": 4439,
      "ĠHorse": 4440,
      "use": 4441,
      "ĠWels": 4442,
      "Ġheart": 4443,
      "ĠEs": 4444,
      "Ġsuc": 4445,
      "Ġsust": 4446,
      "Ġsport": 4447,
      "ograp": 4448,
      "Ġinches": 4449,
      "Ġscale": 4450,
      "Ġoffensive": 4451,
      "ĠAnn": 4452,
      "Ġexpressed": 4453,
      "Ġconcent": 4454,
      "Ġextra": 4455,
      "Ġcounty": 4456,
      "ĠPrince": 4457,
      "Ġrights": 4458,
      "Ġnortheast": 4459,
      "Ġaffected": 4460,
      "ceeded": 4461,
      "onymous": 4462,
      "ĠLouis": 4463,
      "ĠCaptain": 4464,
      "AA": 4465,
      "right": 4466,
      "Ġsout": 4467,
      "Ġwords": 4468,
      "ora": 4469,
      "Ġfarm": 4470,
      "Ġple": 4471,
      "Ġmis": 4472,
      "ĠTri": 4473,
      "ĠChe": 4474,
      "ols": 4475,
      "ushed": 4476,
      "ĠDou": 4477,
      "Ġ180": 4478,
      "Ġneigh": 4479,
      "ĠAtt": 4480,
      "ĠReview": 4481,
      "Ġshowed": 4482,
      "Ġofficer": 4483,
      "Ġprogress": 4484,
      "ĠNesb": 4485,
      "ĠTintin": 4486,
      "ĠWelsh": 4487,
      "mond": 4488,
      "mitted": 4489,
      "orus": 4490,
      "Ġhy": 4491,
      "ĠSil": 4492,
      "ĠManc": 4493,
      "igg": 4494,
      "igan": 4495,
      "astic": 4496,
      "Ġability": 4497,
      "ĠThough": 4498,
      "Ġthemes": 4499,
      "ĠZhou": 4500,
      "ĠAdm": 4501,
      "Ġbattalion": 4502,
      "ĠAndrew": 4503,
      "Ġexcav": 4504,
      "Ġcombined": 4505,
      "ĠVaranas": 4506,
      "Ġnewspaper": 4507,
      "ĠCeres": 4508,
      "ironment": 4509,
      "ĠEmpire": 4510,
      "ĠVaranasi": 4511,
      "ãĤ": 4512,
      "rect": 4513,
      "Ġmess": 4514,
      "Ġhorse": 4515,
      "ĠFred": 4516,
      "ovic": 4517,
      "Ġqual": 4518,
      "ĠCommun": 4519,
      "Ġtitled": 4520,
      "Ġportray": 4521,
      "Ġcultural": 4522,
      "Ġsquare": 4523,
      "ĠOdaen": 4524,
      "ĠApple": 4525,
      "Ġcasualties": 4526,
      "ĠNesbitt": 4527,
      "Ġsays": 4528,
      "Ġox": 4529,
      "ĠTru": 4530,
      "Ġreign": 4531,
      "ĠWay": 4532,
      "aine": 4533,
      "Ġ49": 4534,
      "Ġremark": 4535,
      "Ġproduce": 4536,
      "Ġcontinues": 4537,
      "Ġgrass": 4538,
      "ĠEva": 4539,
      "Ġearliest": 4540,
      "Ġmountain": 4541,
      "while": 4542,
      "ĠAngeles": 4543,
      "Ġmentioned": 4544,
      "Ġancient": 4545,
      "Ġmurder": 4546,
      "Ġcerem": 4547,
      "ĠIllinois": 4548,
      "ĠOdaenathus": 4549,
      "Mont": 4550,
      "laim": 4551,
      "nown": 4552,
      "inus": 4553,
      "enant": 4554,
      "Ġfully": 4555,
      "Ġmission": 4556,
      "ented": 4557,
      "ĠCra": 4558,
      "ĠBoy": 4559,
      "etts": 4560,
      "ĠDirect": 4561,
      "ĠWash": 4562,
      "osen": 4563,
      "ĠJos": 4564,
      "oper": 4565,
      "Ġchampionship": 4566,
      "Ġmanufact": 4567,
      "Ġactor": 4568,
      "Ġprint": 4569,
      "Ġartists": 4570,
      "Ġresulting": 4571,
      "orpedo": 4572,
      "Ġ1920": 4573,
      "ĠRecords": 4574,
      "Ġauthorities": 4575,
      "Ġinfluenced": 4576,
      "ĠDuMont": 4577,
      "Ġflooding": 4578,
      "Ġnarrow": 4579,
      "ĠOlympic": 4580,
      "Ġadopted": 4581,
      "Ġdisease": 4582,
      "Ġadvantage": 4583,
      "ĠMogad": 4584,
      "ĠSarnia": 4585,
      "Ġwild": 4586,
      "ĠCap": 4587,
      "Ġnest": 4588,
      "ura": 4589,
      "Ġspl": 4590,
      "Ġ65": 4591,
      "ĠColon": 4592,
      "ĠProt": 4593,
      "Ġreports": 4594,
      "Ġlegal": 4595,
      "Ġbasis": 4596,
      "ĠPerÃ³n": 4597,
      "Ġrepresented": 4598,
      "lies": 4599,
      "lings": 4600,
      "mark": 4601,
      "Ã¨": 4602,
      "Ġsides": 4603,
      "Ġcandid": 4604,
      "Ġbott": 4605,
      "asc": 4606,
      "Ġtoward": 4607,
      "Ġmile": 4608,
      "ĠPop": 4609,
      "Ġalone": 4610,
      "ĠNC": 4611,
      "Ġcoming": 4612,
      "Ġexhib": 4613,
      "ella": 4614,
      "Ġapparent": 4615,
      "Ġagg": 4616,
      "ĠNews": 4617,
      "Ġdefense": 4618,
      "Ġbridge": 4619,
      "helm": 4620,
      "Ġbegin": 4621,
      "Ġviewers": 4622,
      "ĠWeek": 4623,
      "Ġletters": 4624,
      "Ġwithdraw": 4625,
      "Ġtower": 4626,
      "Ġtournament": 4627,
      "ĠMiddle": 4628,
      "ĠThunderbird": 4629,
      "ĠManchester": 4630,
      "bit": 4631,
      "writ": 4632,
      "Ġtorpedo": 4633,
      "Ġdirection": 4634,
      "Ġhun": 4635,
      "ĠSR": 4636,
      "ĠHome": 4637,
      "ĠHorn": 4638,
      "ĠFour": 4639,
      "ĠLar": 4640,
      "ĠOcean": 4641,
      "Ġrat": 4642,
      "Ġkakapo": 4643,
      "Ġyellow": 4644,
      "Ġarmed": 4645,
      "Ġworkers": 4646,
      "Ġrelatively": 4647,
      "Ġfounded": 4648,
      "Ġalongside": 4649,
      "Ġoccasion": 4650,
      "Ġeffort": 4651,
      "ĠClark": 4652,
      "Ġnorthwest": 4653,
      "ancy": 4654,
      "Ġillust": 4655,
      "ĠWashington": 4656,
      "aith": 4657,
      "bour": 4658,
      "lam": 4659,
      "lers": 4660,
      "Ġsac": 4661,
      "Ġcadmium": 4662,
      "ala": 4663,
      "Ġmechan": 4664,
      "Ġhors": 4665,
      "Ġlosing": 4666,
      "ĠMax": 4667,
      "ulate": 4668,
      "Ġrang": 4669,
      "iana": 4670,
      "Ġunivers": 4671,
      "ĠVan": 4672,
      "Ġcontain": 4673,
      "Ġcontact": 4674,
      "Ġadj": 4675,
      "ricult": 4676,
      "Ġattended": 4677,
      "Ġemph": 4678,
      "Ġ1988": 4679,
      "Ġofficially": 4680,
      "Ġedition": 4681,
      "Ġtried": 4682,
      "Ġorganized": 4683,
      "Ġcapture": 4684,
      "Ġindividuals": 4685,
      "Ġtransferred": 4686,
      "Ġphysical": 4687,
      "lim": 4688,
      "Ġáĥ": 4689,
      "Ġast": 4690,
      "ĠSum": 4691,
      "ental": 4692,
      "adel": 4693,
      "ĠMass": 4694,
      "ĠHu": 4695,
      "Ġproved": 4696,
      "abama": 4697,
      "gend": 4698,
      "Ġperman": 4699,
      "ĠAlabama": 4700,
      "Ġneut": 4701,
      "Ġacting": 4702,
      "prise": 4703,
      "ĠMean": 4704,
      "Ġrequire": 4705,
      "Ġwinter": 4706,
      "Ġbehav": 4707,
      "Ġpattern": 4708,
      "Ġofficials": 4709,
      "Ġmeasure": 4710,
      "Ġsurrounding": 4711,
      "Ġrainfall": 4712,
      "Ġdedicated": 4713,
      "ĠJoseph": 4714,
      "ĠOmaha": 4715,
      "ĠMogadish": 4716,
      "che": 4717,
      "can": 4718,
      "rong": 4719,
      "uous": 4720,
      "inem": 4721,
      "Ġfeder": 4722,
      "ĠSen": 4723,
      "Ġlives": 4724,
      "ĠMD": 4725,
      "ĠBu": 4726,
      "imore": 4727,
      "ĠDest": 4728,
      "ĠKent": 4729,
      "Ġenergy": 4730,
      "Ġ64": 4731,
      "ĠArm": 4732,
      "Ġdoing": 4733,
      "Ġedge": 4734,
      "ĠEdward": 4735,
      "Ġcouple": 4736,
      "ij": 4737,
      "iate": 4738,
      "onn": 4739,
      "Ġwa": 4740,
      "itness": 4741,
      "Ġfolk": 4742,
      "Ġmind": 4743,
      "ĠFant": 4744,
      "ĠGall": 4745,
      "ĠLord": 4746,
      "Ġchief": 4747,
      "Ġshape": 4748,
      "Ġ46": 4749,
      "izes": 4750,
      "ibr": 4751,
      "Ġprepar": 4752,
      "Ġfollows": 4753,
      "azz": 4754,
      "ĠIndepend": 4755,
      "Ġdesignated": 4756,
      "Ġshortly": 4757,
      "Ġpossibly": 4758,
      "ĠReception": 4759,
      "Ġsociety": 4760,
      "Ġdivided": 4761,
      "Ġfunction": 4762,
      "Ġdissip": 4763,
      "ĠHelms": 4764,
      "Ġintensity": 4765,
      "ĠInnis": 4766,
      "Ġfinancial": 4767,
      "ĠMogadishu": 4768,
      "RA": 4769,
      "kare": 4770,
      "Ġfaced": 4771,
      "Ġborder": 4772,
      "Ġpaid": 4773,
      "ĠBh": 4774,
      "ĠBowl": 4775,
      "ĠPrem": 4776,
      "ĠLis": 4777,
      "ĠJourn": 4778,
      "Ġyour": 4779,
      "Ġyoun": 4780,
      "Ġincorpor": 4781,
      "Ġimages": 4782,
      "Ġalbums": 4783,
      "Ġrepe": 4784,
      "Ġ1964": 4785,
      "Ġsimply": 4786,
      "Ġolder": 4787,
      "Ġlegisl": 4788,
      "ĠHistor": 4789,
      "Ġletter": 4790,
      "Ġsources": 4791,
      "ĠWilhelm": 4792,
      "ĠMcCall": 4793,
      "Ġeye": 4794,
      "Ġdetermined": 4795,
      "Ġjournal": 4796,
      "Ġmaximum": 4797,
      "ĠArgent": 4798,
      "VD": 4799,
      "eer": 4800,
      "ux": 4801,
      "wide": 4802,
      "Ġaid": 4803,
      "inated": 4804,
      "aling": 4805,
      "Ġmaster": 4806,
      "enture": 4807,
      "Ġthir": 4808,
      "Ġonto": 4809,
      "ĠEnd": 4810,
      "Ġcomedy": 4811,
      "ĠKore": 4812,
      "Ġplaces": 4813,
      "ipment": 4814,
      "Ġadvert": 4815,
      "ugby": 4816,
      "Ġmovie": 4817,
      "Ġbroken": 4818,
      "Ġportion": 4819,
      "ĠAssembly": 4820,
      "Ġkept": 4821,
      "Ġdoub": 4822,
      "Ġpiece": 4823,
      "Ġpotential": 4824,
      "Ġsculpt": 4825,
      "Ġemphas": 4826,
      "Station": 4827,
      "Åį": 4828,
      "Ġrom": 4829,
      "edar": 4830,
      "Ġcities": 4831,
      "Ġfrag": 4832,
      "Ġdut": 4833,
      "Ġhom": 4834,
      "ĠFleet": 4835,
      "ĠJup": 4836,
      "udd": 4837,
      "duction": 4838,
      "Ġcharge": 4839,
      "ĠCommission": 4840,
      "Ġargued": 4841,
      "Ġiron": 4842,
      "ĠPlayStation": 4843,
      "Ġdomestic": 4844,
      "Ġroyal": 4845,
      "isters": 4846,
      "lection": 4847,
      "ĠBir": 4848,
      "Ġge": 4849,
      "Ġgrew": 4850,
      "ety": 4851,
      "Ġstep": 4852,
      "ĠRih": 4853,
      "ĠFA": 4854,
      "ĠGood": 4855,
      "ĠNight": 4856,
      "agan": 4857,
      "istry": 4858,
      "ĠKn": 4859,
      "asty": 4860,
      "Ġspot": 4861,
      "Ġunk": 4862,
      "ĠVen": 4863,
      "Ġcontent": 4864,
      "Ġroll": 4865,
      "Ġ53": 4866,
      "Ġ55": 4867,
      "Ġcolor": 4868,
      "Ġdepth": 4869,
      "ĠCommon": 4870,
      "Ġsuggests": 4871,
      "Ġauthority": 4872,
      "Ġprojects": 4873,
      "Ġmanagement": 4874,
      "Ġsites": 4875,
      "ĠHamels": 4876,
      "ĠValley": 4877,
      "ĠBaltimore": 4878,
      "ĠRihanna": 4879,
      "Ġsay": 4880,
      "Ġsens": 4881,
      "Ġwor": 4882,
      "Ġwave": 4883,
      "Ġfung": 4884,
      "Ġpaint": 4885,
      "Ġhomes": 4886,
      "Ġhospital": 4887,
      "ĠSky": 4888,
      "acement": 4889,
      "lys": 4890,
      "Ġgained": 4891,
      "ĠWrit": 4892,
      "ĠGreek": 4893,
      "umes": 4894,
      "Ġshare": 4895,
      "Ġscience": 4896,
      "Ġattend": 4897,
      "Ġweak": 4898,
      "Ġprison": 4899,
      "Ġmuseum": 4900,
      "Ġentrance": 4901,
      "ertain": 4902,
      "Ġdepart": 4903,
      "Ġartic": 4904,
      "ĠConstant": 4905,
      "Ġbelong": 4906,
      "Ġphil": 4907,
      "Ġcausing": 4908,
      "Ġtwice": 4909,
      "Ġcriticized": 4910,
      "Ġstructures": 4911,
      "ĠPalest": 4912,
      "ĠDjed": 4913,
      "Ġultimately": 4914,
      "Ġtarget": 4915,
      "Ġschedul": 4916,
      "Ġwebsite": 4917,
      "rative": 4918,
      "Ġfres": 4919,
      "Ġmouth": 4920,
      "Ġhyd": 4921,
      "ĠBig": 4922,
      "ĠPen": 4923,
      "ĠDVD": 4924,
      "ĠLew": 4925,
      "Ġvess": 4926,
      "Ġdeploy": 4927,
      "ĠUl": 4928,
      "Ġcontaining": 4929,
      "Ġintellig": 4930,
      "ĠAnth": 4931,
      "Ġformation": 4932,
      "Ġinterp": 4933,
      "Ġdefence": 4934,
      "Ġresults": 4935,
      "Ġdebuted": 4936,
      "ĠForest": 4937,
      "Ġdismiss": 4938,
      "ĠJupiter": 4939,
      "ĠDjedkare": 4940,
      "gn": 4941,
      "ya": 4942,
      "yr": 4943,
      "Ġtail": 4944,
      "rel": 4945,
      "ati": 4946,
      "atur": 4947,
      "orter": 4948,
      "Ġcore": 4949,
      "Ġcricket": 4950,
      "Ġfast": 4951,
      "ĠMore": 4952,
      "ĠBur": 4953,
      "ĠHib": 4954,
      "Ġchosen": 4955,
      "Ġkg": 4956,
      "ĠUs": 4957,
      "Ġ56": 4958,
      "Ġremix": 4959,
      "Ġdefensive": 4960,
      "Ġopin": 4961,
      "Ġminer": 4962,
      "Ġ1947": 4963,
      "Ġbattles": 4964,
      "Ġforeign": 4965,
      "Ġplanet": 4966,
      "Ġcollabor": 4967,
      "ĠTorres": 4968,
      "Ġlabel": 4969,
      "more": 4970,
      "Ġfix": 4971,
      "Ġinch": 4972,
      "Ġpan": 4973,
      "ĠLock": 4974,
      "ĠJon": 4975,
      "ĠEastern": 4976,
      "ĠOx": 4977,
      "ĠChap": 4978,
      "ĠChild": 4979,
      "Ġ43": 4980,
      "Ġsecurity": 4981,
      "Ġconsecutive": 4982,
      "ĠShort": 4983,
      "Ġenter": 4984,
      "Ġ120": 4985,
      "Ġbrigade": 4986,
      "Ġprominent": 4987,
      "Ġorganization": 4988,
      "Ġstanding": 4989,
      "Ġreference": 4990,
      "Ġgrowing": 4991,
      "Ġanimal": 4992,
      "Ġburied": 4993,
      "Ġindependent": 4994,
      "Ġgranted": 4995,
      "Ġrejected": 4996,
      "Ġabandoned": 4997,
      "ML": 4998,
      "bl": 4999,
      "then": 5000,
      "Ã¼": 5001,
      "Ġsand": 5002,
      "Ġdiam": 5003,
      "ĠField": 5004,
      "ĠGre": 5005,
      "Ġven": 5006,
      "Ġseek": 5007,
      "ocated": 5008,
      "ĠOnce": 5009,
      "Ġweight": 5010,
      "Ġcolony": 5011,
      "Ġdoct": 5012,
      "Ġtherefore": 5013,
      "Ġstudent": 5014,
      "Ġ1941": 5015,
      "Ġvisited": 5016,
      "Ġclaims": 5017,
      "Ġtemple": 5018,
      "Ġorders": 5019,
      "ĠAirport": 5020,
      "Ġcondition": 5021,
      "Ġcells": 5022,
      "white": 5023,
      "ĠScottish": 5024,
      "ographer": 5025,
      "ĠApplewhite": 5026,
      "ees": 5027,
      "mon": 5028,
      "mosp": 5029,
      "Ġmic": 5030,
      "Ġdress": 5031,
      "ĠSo": 5032,
      "ĠSAF": 5033,
      "ĠCre": 5034,
      "ĠBon": 5035,
      "ĠBBC": 5036,
      "iring": 5037,
      "ĠRA": 5038,
      "ĠNorm": 5039,
      "Ġrisk": 5040,
      "Ġspect": 5041,
      "phia": 5042,
      "Ġnewly": 5043,
      "Ġregions": 5044,
      "Ġseconds": 5045,
      "Ġsingles": 5046,
      "Ġ1987": 5047,
      "airs": 5048,
      "Ġbroke": 5049,
      "Ġmoment": 5050,
      "Ġwounded": 5051,
      "adelphia": 5052,
      "ĠSAFE": 5053,
      "ao": 5054,
      "Ġtur": 5055,
      "Ġahead": 5056,
      "Ġcases": 5057,
      "Ġfear": 5058,
      "asters": 5059,
      "oured": 5060,
      "Ġreaching": 5061,
      "Ġheight": 5062,
      "resp": 5063,
      "ĠInstitute": 5064,
      "Ġseems": 5065,
      "Ġenemy": 5066,
      "ĠIndust": 5067,
      "Ġsolo": 5068,
      "ushing": 5069,
      "Ġequipment": 5070,
      "fficient": 5071,
      "Ġknowledge": 5072,
      "Ġidentified": 5073,
      "Ġnominated": 5074,
      "ĠEgyptian": 5075,
      "Ġtemperature": 5076,
      "ĠBackground": 5077,
      "Ġversions": 5078,
      "ners": 5079,
      "tav": 5080,
      "Ġtun": 5081,
      "Ġaired": 5082,
      "Ġcust": 5083,
      "Ġcouncil": 5084,
      "Ġbud": 5085,
      "Ġmales": 5086,
      "ading": 5087,
      "ĠBan": 5088,
      "ĠDue": 5089,
      "ĠJur": 5090,
      "Ġunique": 5091,
      "Ġ41": 5092,
      "Ġ1984": 5093,
      "Ġ1989": 5094,
      "Ġ1972": 5095,
      "Ġreturning": 5096,
      "Ġsupporting": 5097,
      "Ġelement": 5098,
      "ĠBefore": 5099,
      "Ġcampus": 5100,
      "Ġopposed": 5101,
      "urban": 5102,
      "Ġproblem": 5103,
      "ĠCroatia": 5104,
      "Ġenvironment": 5105,
      "ĠFurther": 5106,
      "Le": 5107,
      "cy": 5108,
      "mun": 5109,
      "Ġtim": 5110,
      "ero": 5111,
      "Ġfired": 5112,
      "Ġfox": 5113,
      "ishes": 5114,
      "ĠSub": 5115,
      "ads": 5116,
      "ĠMike": 5117,
      "ette": 5118,
      "oted": 5119,
      "Ġatmosp": 5120,
      "Ġanalysis": 5121,
      "ĠEach": 5122,
      "ĠKir": 5123,
      "Ġunp": 5124,
      "Ġ54": 5125,
      "Ġperfect": 5126,
      "Ġteacher": 5127,
      "Ġ1985": 5128,
      "Ġoperated": 5129,
      "ĠCarl": 5130,
      "ĠOrigin": 5131,
      "Ġlooking": 5132,
      "Ġincreasingly": 5133,
      "Ġliterature": 5134,
      "ĠOperation": 5135,
      "Ġscholars": 5136,
      "ĠEntertain": 5137,
      "Ġstraight": 5138,
      "Ġunknown": 5139,
      "uct": 5140,
      "Ġtheory": 5141,
      "Ġboy": 5142,
      "alle": 5143,
      "stream": 5144,
      "aming": 5145,
      "Ġec": 5146,
      "ĠMort": 5147,
      "ĠId": 5148,
      "ider": 5149,
      "ĠHMS": 5150,
      "ĠRy": 5151,
      "ĠRet": 5152,
      "Ġalter": 5153,
      "Ġhere": 5154,
      "ighth": 5155,
      "ĠKar": 5156,
      "Ġcompr": 5157,
      "Ġweather": 5158,
      "Ġwrites": 5159,
      "Ġdefin": 5160,
      "Ġacad": 5161,
      "Ġbelieve": 5162,
      "Ġbreeding": 5163,
      "Ġexplained": 5164,
      "Ġcommonly": 5165,
      "ĠBarrow": 5166,
      "Ġhistorian": 5167,
      "Ġideas": 5168,
      "Ġsettlement": 5169,
      "ĠSwed": 5170,
      "Ġburns": 5171,
      "ĠCardiff": 5172,
      "Ġconfirmed": 5173,
      "Ġmolec": 5174,
      "eg": 5175,
      "uge": 5176,
      "ych": 5177,
      "Ġod": 5178,
      "Ġoil": 5179,
      "ato": 5180,
      "ĠMic": 5181,
      "Ġstations": 5182,
      "ĠPublic": 5183,
      "ĠNever": 5184,
      "aved": 5185,
      "ĠEven": 5186,
      "Ġvo": 5187,
      "ĠKey": 5188,
      "ĠStan": 5189,
      "ĠVill": 5190,
      "Ġarrest": 5191,
      "Ġherself": 5192,
      "ĠOnly": 5193,
      "Ġconsisted": 5194,
      "Ġsinging": 5195,
      "Ġ1944": 5196,
      "Ġlandfall": 5197,
      "ĠClass": 5198,
      "Ġadvanced": 5199,
      "ĠDevelop": 5200,
      "Ġsystems": 5201,
      "Ġparliament": 5202,
      "Ġcriticism": 5203,
      "Ġfemales": 5204,
      "ĠMichigan": 5205,
      "ĠKeats": 5206,
      "Ġstrike": 5207,
      "ĠPhiladelphia": 5208,
      "Ġproperty": 5209,
      "ĠCongress": 5210,
      "Ġeconomic": 5211,
      "Ġcontrolled": 5212,
      "hu": 5213,
      "ket": 5214,
      "alions": 5215,
      "Ġpict": 5216,
      "asure": 5217,
      "ĠHart": 5218,
      "ĠRog": 5219,
      "ĠGi": 5220,
      "ĠGord": 5221,
      "ĠLl": 5222,
      "illo": 5223,
      "Ġdeities": 5224,
      "Ġimag": 5225,
      "weet": 5226,
      "awa": 5227,
      "Ġexped": 5228,
      "Ġcreation": 5229,
      "Ġleader": 5230,
      "Ġ130": 5231,
      "ĠWilliams": 5232,
      "ĠMounted": 5233,
      "Ġgrowth": 5234,
      "Ġmaintained": 5235,
      "Ġpieces": 5236,
      "Ġfailure": 5237,
      "Ġdropped": 5238,
      "Ġsemi": 5239,
      "ĠAddition": 5240,
      "ĠMeanwhile": 5241,
      "Ġawards": 5242,
      "inity": 5243,
      "inary": 5244,
      "ena": 5245,
      "Ġfict": 5246,
      "Ġmob": 5247,
      "ĠAp": 5248,
      "ĠMatt": 5249,
      "ĠBas": 5250,
      "Ġgar": 5251,
      "ĠRos": 5252,
      "ĠDen": 5253,
      "ĠDutch": 5254,
      "unic": 5255,
      "rak": 5256,
      "ĠGard": 5257,
      "ĠLu": 5258,
      "ĠLuc": 5259,
      "Ġcompar": 5260,
      "Ġarrang": 5261,
      "Ġresemb": 5262,
      "Ġ57": 5263,
      "ĠAlbum": 5264,
      "hips": 5265,
      "Ġfilmed": 5266,
      "ĠLeg": 5267,
      "fully": 5268,
      "Ġguest": 5269,
      "Ġkilling": 5270,
      "Ġfreeway": 5271,
      "Ġpitched": 5272,
      "Ġhonor": 5273,
      "Ġflying": 5274,
      "Ġinjury": 5275,
      "Ġfederal": 5276,
      "ias": 5277,
      "Ã¶": 5278,
      "Ġtact": 5279,
      "Ġtask": 5280,
      "onom": 5281,
      "Ġsen": 5282,
      "Ġbit": 5283,
      "Ġmist": 5284,
      "ĠBost": 5285,
      "ĠDer": 5286,
      "ĠDis": 5287,
      "ĠDun": 5288,
      "ĠGh": 5289,
      "ĠNathan": 5290,
      "antly": 5291,
      "ieval": 5292,
      "ĠItaly": 5293,
      "Ġserve": 5294,
      "ampion": 5295,
      "Ġ600": 5296,
      "Ġactress": 5297,
      "Ġretired": 5298,
      "ashion": 5299,
      "Ġmatter": 5300,
      "ĠGuard": 5301,
      "Ġrestaur": 5302,
      "ĠAndy": 5303,
      "Ġbelief": 5304,
      "Ġhumans": 5305,
      "ĠAbu": 5306,
      "Ġspeak": 5307,
      "ĠSteve": 5308,
      "Ġboats": 5309,
      "Ġreligion": 5310,
      "Ġpromoted": 5311,
      "Ġvalue": 5312,
      "Ġmounted": 5313,
      "ĠMinister": 5314,
      "lusion": 5315,
      "ĠJeff": 5316,
      "Ġrapidly": 5317,
      "Ġbattery": 5318,
      "Ġweapons": 5319,
      "Ġhorses": 5320,
      "cription": 5321,
      "jo": 5322,
      "kin": 5323,
      "Ġut": 5324,
      "Ġselling": 5325,
      "Ġbid": 5326,
      "Ġbank": 5327,
      "roph": 5328,
      "iced": 5329,
      "Ġham": 5330,
      "ĠAst": 5331,
      "ĠCold": 5332,
      "ĠMod": 5333,
      "uli": 5334,
      "ĠLes": 5335,
      "ersey": 5336,
      "ager": 5337,
      "alls": 5338,
      "ieut": 5339,
      "Ġagricult": 5340,
      "Ġflank": 5341,
      "Ġcolumn": 5342,
      "ĠAmericans": 5343,
      "Ġdescription": 5344,
      "Ġinvasion": 5345,
      "ĠConference": 5346,
      "Ġpasses": 5347,
      "Ġpassing": 5348,
      "Ġpublication": 5349,
      "Ġprotest": 5350,
      "Ġcougar": 5351,
      "Ġsignificantly": 5352,
      "Ġpromotion": 5353,
      "Ġconnected": 5354,
      "Ġrecognized": 5355,
      "Ġcreating": 5356,
      "Ġmultiple": 5357,
      "Ġclean": 5358,
      "Ġpremi": 5359,
      "Ġaccompan": 5360,
      "Ġprepared": 5361,
      "cop": 5362,
      "fort": 5363,
      "han": 5364,
      "haps": 5365,
      "Äĩ": 5366,
      "rete": 5367,
      "render": 5368,
      "Ġsought": 5369,
      "itable": 5370,
      "Ġbats": 5371,
      "Ġmo": 5372,
      "Ġdata": 5373,
      "ĠMur": 5374,
      "ĠMem": 5375,
      "ĠFinal": 5376,
      "ĠWat": 5377,
      "ĠWork": 5378,
      "ĠInst": 5379,
      "Ġchose": 5380,
      "ĠVideo": 5381,
      "icks": 5382,
      "amese": 5383,
      "Ġstarts": 5384,
      "Ġfamous": 5385,
      "Ġdeliver": 5386,
      "Ġpopularity": 5387,
      "Ġproducers": 5388,
      "chers": 5389,
      "Ġvolume": 5390,
      "Ġwalls": 5391,
      "ĠSlam": 5392,
      "Ġregarded": 5393,
      "Ġstrengthen": 5394,
      "Ġreaction": 5395,
      "Ġsilver": 5396,
      "Ġaspects": 5397,
      "Ġnucleus": 5398,
      "Ġseventh": 5399,
      "Ġnecessary": 5400,
      "Ġscheduled": 5401,
      "ca": 5402,
      "hi": 5403,
      "load": 5404,
      "yth": 5405,
      "Ġdrop": 5406,
      "Ġreform": 5407,
      "ĠAri": 5408,
      "ĠCole": 5409,
      "Ġlaid": 5410,
      "lying": 5411,
      "olved": 5412,
      "ote": 5413,
      "Ġbeaut": 5414,
      "ĠGulf": 5415,
      "ĠLine": 5416,
      "ĠLiber": 5417,
      "Ġvirt": 5418,
      "Ġrise": 5419,
      "Ġrival": 5420,
      "Ġsend": 5421,
      "ogen": 5422,
      "Ġnews": 5423,
      "Ġ96": 5424,
      "Ġ1981": 5425,
      "Ġlanding": 5426,
      "heless": 5427,
      "Ġstrik": 5428,
      "ĠVietnamese": 5429,
      "Ġsustained": 5430,
      "Ġphilos": 5431,
      "hm": 5432,
      "och": 5433,
      "uan": 5434,
      "Ġouter": 5435,
      "Ġfat": 5436,
      "Ġfought": 5437,
      "Ġdated": 5438,
      "ĠSund": 5439,
      "standing": 5440,
      "ĠMu": 5441,
      "ĠHaven": 5442,
      "ĠNaz": 5443,
      "ĠObs": 5444,
      "ifying": 5445,
      "Ġspring": 5446,
      "ips": 5447,
      "ocked": 5448,
      "venue": 5449,
      "ĠAdv": 5450,
      "ĠUSA": 5451,
      "Ġreflect": 5452,
      "ĠPho": 5453,
      "Ġdrive": 5454,
      "ĠAmong": 5455,
      "Ġcastle": 5456,
      "Ġcurrently": 5457,
      "Ġemployed": 5458,
      "ĠCambod": 5459,
      "Äģda": 5460,
      "Ġfamilies": 5461,
      "ĠThunderbirds": 5462,
      "Ġbudget": 5463,
      "rum": 5464,
      "yt": 5465,
      "à¸": 5466,
      "Ġtree": 5467,
      "heastern": 5468,
      "ini": 5469,
      "onent": 5470,
      "Ġsave": 5471,
      "Ġpul": 5472,
      "Ġmort": 5473,
      "ĠAthlet": 5474,
      "add": 5475,
      "ivity": 5476,
      "iments": 5477,
      "ĠDomin": 5478,
      "ĠGirl": 5479,
      "Ġrating": 5480,
      "Ġexec": 5481,
      "Ġcontained": 5482,
      "Ġarms": 5483,
      "Ġrow": 5484,
      "Ġ700": 5485,
      "Ġunderground": 5486,
      "orney": 5487,
      "Ġends": 5488,
      "ologists": 5489,
      "hess": 5490,
      "insula": 5491,
      "Ġ179": 5492,
      "Ġphase": 5493,
      "Ġ1939": 5494,
      "Ġtrial": 5495,
      "Ġfacilities": 5496,
      "Ġfrequently": 5497,
      "ĠOxford": 5498,
      "ĠEntertainment": 5499,
      "TC": 5500,
      "ii": 5501,
      "lines": 5502,
      "rig": 5503,
      "sw": 5504,
      "Ġwed": 5505,
      "rog": 5506,
      "Ġdial": 5507,
      "ĠCa": 5508,
      "Ġla": 5509,
      "ĠHan": 5510,
      "Ġbey": 5511,
      "thur": 5512,
      "ĠDar": 5513,
      "unction": 5514,
      "ĠFre": 5515,
      "ĠFriend": 5516,
      "ĠFestival": 5517,
      "ĠGreg": 5518,
      "ĠNH": 5519,
      "ĠEll": 5520,
      "Ġexecutive": 5521,
      "sea": 5522,
      "iance": 5523,
      "aph": 5524,
      "Ġunus": 5525,
      "Ġcomputer": 5526,
      "Ġcontributed": 5527,
      "Ġarc": 5528,
      "Ġprefer": 5529,
      "Ġcollected": 5530,
      "Ġactors": 5531,
      "Ġexpress": 5532,
      "Ġ1942": 5533,
      "Ġsimple": 5534,
      "Ġallows": 5535,
      "Ġnegative": 5536,
      "borough": 5537,
      "ĠStudios": 5538,
      "Ġdegree": 5539,
      "ĠRevolution": 5540,
      "Ġbottom": 5541,
      "ĠGordon": 5542,
      "iable": 5543,
      "kins": 5544,
      "ridge": 5545,
      "Ġcited": 5546,
      "Ġcraft": 5547,
      "arian": 5548,
      "Ġhor": 5549,
      "ĠSus": 5550,
      "ĠChel": 5551,
      "ayer": 5552,
      "ĠRail": 5553,
      "unte": 5554,
      "ĠNBA": 5555,
      "Ġshaped": 5556,
      "sey": 5557,
      "ĠStep": 5558,
      "Ġsports": 5559,
      "Ġoverl": 5560,
      "angers": 5561,
      "Ġ61": 5562,
      "Ġ73": 5563,
      "Ġ95": 5564,
      "Ġopera": 5565,
      "Ġ1918": 5566,
      "Ġeffective": 5567,
      "Ġentirely": 5568,
      "Ġanimals": 5569,
      "ĠCoast": 5570,
      "Ġimproved": 5571,
      "Ġsubsequent": 5572,
      "ĠBetween": 5573,
      "ĠTurner": 5574,
      "ĠCrazy": 5575,
      "ĠPremier": 5576,
      "Ġfictional": 5577,
      "ieutenant": 5578,
      "Ġbeyond": 5579,
      "ez": 5580,
      "iot": 5581,
      "mission": 5582,
      "Ã¤": 5583,
      "arp": 5584,
      "Ġmig": 5585,
      "ĠBru": 5586,
      "Ġgain": 5587,
      "Ġgives": 5588,
      "ĠRel": 5589,
      "agement": 5590,
      "Ġnotable": 5591,
      "perial": 5592,
      "Ġrecently": 5593,
      "ĠAlf": 5594,
      "Ġ62": 5595,
      "Ġ97": 5596,
      "Ġ800": 5597,
      "ĠMario": 5598,
      "Ġtrain": 5599,
      "Ġ1968": 5600,
      "Ġ1969": 5601,
      "Ġextensive": 5602,
      "ancing": 5603,
      "ĠProv": 5604,
      "Ġvisual": 5605,
      "Ġmedical": 5606,
      "Ġfinding": 5607,
      "Ġmyth": 5608,
      "Ġboat": 5609,
      "Ġencoura": 5610,
      "ĠBoise": 5611,
      "Ġgradually": 5612,
      "ĠTurk": 5613,
      "ĠMartin": 5614,
      "Ġkilometres": 5615,
      "ĠToday": 5616,
      "ĠLewis": 5617,
      "ĠBoston": 5618,
      "chen": 5619,
      "iences": 5620,
      "rine": 5621,
      "Ġsail": 5622,
      "atus": 5623,
      "isy": 5624,
      "Ġbass": 5625,
      "rot": 5626,
      "Ġdates": 5627,
      "ĠCle": 5628,
      "ĠCub": 5629,
      "Ġegg": 5630,
      "eck": 5631,
      "lywood": 5632,
      "ĠBart": 5633,
      "Ġstages": 5634,
      "ĠRod": 5635,
      "ĠFox": 5636,
      "ules": 5637,
      "ĠJain": 5638,
      "Ġchair": 5639,
      "ĠKang": 5640,
      "ĠUN": 5641,
      "ĠStone": 5642,
      "ĠHead": 5643,
      "aret": 5644,
      "Ġfinals": 5645,
      "rence": 5646,
      "Ġfloor": 5647,
      "Ġmush": 5648,
      "Ġsecondary": 5649,
      "Ġsevere": 5650,
      "Ġexpanded": 5651,
      "Ġ1975": 5652,
      "ĠBridge": 5653,
      "Ġoccas": 5654,
      "ĠJuan": 5655,
      "ycle": 5656,
      "Ġserving": 5657,
      "Ġantimony": 5658,
      "ĠBarb": 5659,
      "Ġsurvey": 5660,
      "Ġprograms": 5661,
      "Ġglob": 5662,
      "ĠCrown": 5663,
      "ĠPeople": 5664,
      "ĠSystem": 5665,
      "ĠRussian": 5666,
      "Ã¡nh": 5667,
      "ĠDaniel": 5668,
      "eed": 5669,
      "iations": 5670,
      "yson": 5671,
      "eda": 5672,
      "itan": 5673,
      "Ġbow": 5674,
      "Ġbul": 5675,
      "lee": 5676,
      "ĠAer": 5677,
      "ĠIgu": 5678,
      "Ġgreen": 5679,
      "Ġitems": 5680,
      "Ġcomes": 5681,
      "opp": 5682,
      "illing": 5683,
      "Ġchur": 5684,
      "usted": 5685,
      "Ġunf": 5686,
      "Ġcomposition": 5687,
      "Ġarran": 5688,
      "outs": 5689,
      "Ġcenturies": 5690,
      "Ġ72": 5691,
      "Ġ85": 5692,
      "ansas": 5693,
      "Ġ1965": 5694,
      "Ġ1974": 5695,
      "ographic": 5696,
      "Ġexclus": 5697,
      "Ġfinds": 5698,
      "ĠEvita": 5699,
      "Ġjoin": 5700,
      "ĠMagazine": 5701,
      "Ġoccupied": 5702,
      "ĠBelg": 5703,
      "ĠUpon": 5704,
      "set": 5705,
      "thes": 5706,
      "uate": 5707,
      "erts": 5708,
      "Ġfaith": 5709,
      "Ġdaily": 5710,
      "ompl": 5711,
      "Ġnaval": 5712,
      "ĠMen": 5713,
      "ecess": 5714,
      "ĠBand": 5715,
      "ĠGab": 5716,
      "ĠJac": 5717,
      "ĠJud": 5718,
      "izations": 5719,
      "ublin": 5720,
      "Ġdecades": 5721,
      "Ġ81": 5722,
      "Ġsole": 5723,
      "ĠIsab": 5724,
      "ĠCommander": 5725,
      "Ġdeaths": 5726,
      "Ġsuccessfully": 5727,
      "Ġlosses": 5728,
      "ĠKhÃ¡nh": 5729,
      "ĠMacLe": 5730,
      "Ġnegot": 5731,
      "Ġtreatment": 5732,
      "Ġslowly": 5733,
      "Ġindependence": 5734,
      "Ġcalc": 5735,
      "Ġcommissioned": 5736,
      "Ġexperienced": 5737,
      "win": 5738,
      "Ġaer": 5739,
      "ĠAvenue": 5740,
      "ĠCD": 5741,
      "amy": 5742,
      "Ġeth": 5743,
      "ĠRome": 5744,
      "ĠFar": 5745,
      "istan": 5746,
      "Ġ71": 5747,
      "Ġ94": 5748,
      "Ġflag": 5749,
      "Ġcool": 5750,
      "Ġ164": 5751,
      "Ġdidn": 5752,
      "ĠProject": 5753,
      "Ġtrip": 5754,
      "Ġpersonnel": 5755,
      "Ġsentence": 5756,
      "Ġengaged": 5757,
      "Ġcaptain": 5758,
      "ĠSongs": 5759,
      "ĠJamal": 5760,
      "Ġpurchased": 5761,
      "Ġpolicy": 5762,
      "ĠLiu": 5763,
      "Ġbenef": 5764,
      "aire": 5765,
      "Å¡": 5766,
      "Ġlabor": 5767,
      "Ġeas": 5768,
      "ĠMot": 5769,
      "ĠBrian": 5770,
      "Ġstreet": 5771,
      "ĠPers": 5772,
      "Ġbeach": 5773,
      "ĠRol": 5774,
      "ĠDublin": 5775,
      "ĠGA": 5776,
      "anda": 5777,
      "ava": 5778,
      "Ġchorus": 5779,
      "Ġnothing": 5780,
      "ĠChart": 5781,
      "Ġaccompl": 5782,
      "Ġcoal": 5783,
      "anny": 5784,
      "ĠSha": 5785,
      "Ġsupply": 5786,
      "ĠScience": 5787,
      "Ġ160": 5788,
      "Ġconcrete": 5789,
      "Ġ1946": 5790,
      "Ġsouthwest": 5791,
      "Ġprotagon": 5792,
      "Ġworldwide": 5793,
      "Ġbegun": 5794,
      "Ġelimin": 5795,
      "Ġpropos": 5796,
      "Ġdeclined": 5797,
      "Ġreasons": 5798,
      "ategory": 5799,
      "Ġbriefly": 5800,
      "ĠTennyson": 5801,
      "ĠTemple": 5802,
      "ĠThroughout": 5803,
      "ĠDistrict": 5804,
      "Ġfresh": 5805,
      "ĠIguan": 5806,
      "town": 5807,
      "Ġtheat": 5808,
      "aton": 5809,
      "ingly": 5810,
      "ela": 5811,
      "Ġnor": 5812,
      "ĠMov": 5813,
      "ĠBull": 5814,
      "Ġgas": 5815,
      "iration": 5816,
      "uting": 5817,
      "utation": 5818,
      "ĠDown": 5819,
      "ĠIng": 5820,
      "Ġincident": 5821,
      "ĠAlso": 5822,
      "Ġmoves": 5823,
      "ĠLeon": 5824,
      "pring": 5825,
      "Ġleaders": 5826,
      "Ġdrawn": 5827,
      "ĠTrack": 5828,
      "Ġimportance": 5829,
      "Ġroads": 5830,
      "ĠSimone": 5831,
      "Ġsumm": 5832,
      "Ġescape": 5833,
      "ĠGovernor": 5834,
      "Ġnormal": 5835,
      "Ġplatform": 5836,
      "bo": 5837,
      "born": 5838,
      "Ġ#": 5839,
      "Ġtall": 5840,
      "Ġtend": 5841,
      "erc": 5842,
      "onic": 5843,
      "Ġwitness": 5844,
      "Ġpet": 5845,
      "Ġdance": 5846,
      "Ġhired": 5847,
      "amin": 5848,
      "ĠBern": 5849,
      "ĠBaby": 5850,
      "ĠRay": 5851,
      "Ġisol": 5852,
      "ĠJes": 5853,
      "Ġrac": 5854,
      "Ġplum": 5855,
      "quake": 5856,
      "Ġspons": 5857,
      "elli": 5858,
      "rug": 5859,
      "rupt": 5860,
      "Ġdecade": 5861,
      "ooking": 5862,
      "ĠMaria": 5863,
      "Ġflu": 5864,
      "Ġfoundation": 5865,
      "Ġlongest": 5866,
      "Ġ1966": 5867,
      "Ġ1952": 5868,
      "Ġguard": 5869,
      "Ġ1936": 5870,
      "ĠProduction": 5871,
      "Ġ1919": 5872,
      "Ġpossibility": 5873,
      "ĠBrook": 5874,
      "ĠTeam": 5875,
      "Ġdelay": 5876,
      "Ġarrival": 5877,
      "Ġchapter": 5878,
      "Ġbillion": 5879,
      "Ġparticipated": 5880,
      "Ġfirm": 5881,
      "Ġunsu": 5882,
      "ĠArea": 5883,
      "Ġenjoyed": 5884,
      "Ġresponded": 5885,
      "ĠFamily": 5886,
      "Ġpaintings": 5887,
      "respond": 5888,
      "ĠDevelopment": 5889,
      "Ġsenior": 5890,
      "Ġaccompanied": 5891,
      "ĠMacLeod": 5892,
      "30": 5893,
      "BS": 5894,
      "ls": 5895,
      "rons": 5896,
      "isers": 5897,
      "ĠBoard": 5898,
      "Ġstret": 5899,
      "ĠRow": 5900,
      "ĠRox": 5901,
      "ĠDream": 5902,
      "ĠFive": 5903,
      "osa": 5904,
      "Ġheard": 5905,
      "Ġring": 5906,
      "ichol": 5907,
      "ĠUlys": 5908,
      "ĠChains": 5909,
      "ĠAli": 5910,
      "ĠAlbert": 5911,
      "Ġjack": 5912,
      "ĠMarl": 5913,
      "Ġvert": 5914,
      "Ġsubs": 5915,
      "ifications": 5916,
      "Ġsetting": 5917,
      "Ġ110": 5918,
      "Ġ177": 5919,
      "Ġdeveloping": 5920,
      "ĠDev": 5921,
      "Ġoldest": 5922,
      "Ġparalle": 5923,
      "Äģn": 5924,
      "ÃŃa": 5925,
      "Ġsquad": 5926,
      "Ġagreement": 5927,
      "Ġdollar": 5928,
      "hetic": 5929,
      "Ġroughly": 5930,
      "ĠAdmir": 5931,
      "ĠSummer": 5932,
      "ĠUlysses": 5933,
      "OC": 5934,
      "chest": 5935,
      "oe": 5936,
      "Ġi": 5937,
      "ano": 5938,
      "Ġpal": 5939,
      "Ġdog": 5940,
      "ĠTim": 5941,
      "ĠBor": 5942,
      "ĠBond": 5943,
      "imet": 5944,
      "ĠWall": 5945,
      "ĠInt": 5946,
      "Ġchoice": 5947,
      "pty": 5948,
      "essed": 5949,
      "Ġ77": 5950,
      "Ġremn": 5951,
      "Ġconsists": 5952,
      "Ġdecre": 5953,
      "Ġaccident": 5954,
      "Ġcalls": 5955,
      "Ġtransit": 5956,
      "Ġadding": 5957,
      "Ġpopulations": 5958,
      "Ġemp": 5959,
      "Ġ1973": 5960,
      "ĠConst": 5961,
      "Ġlasted": 5962,
      "espread": 5963,
      "ĠPhill": 5964,
      "Ġtowns": 5965,
      "Ġcombination": 5966,
      "Ġtechnology": 5967,
      "Ġexistence": 5968,
      "Ġregarding": 5969,
      "Ġviolence": 5970,
      "Ġdominated": 5971,
      "Ġpoetry": 5972,
      "Ġsymbol": 5973,
      "ĠFrancisc": 5974,
      "Ġathletes": 5975,
      "ĠDougl": 5976,
      "ĠAnthony": 5977,
      "ĠInstead": 5978,
      "ĠTurkish": 5979,
      "aver": 5980,
      "come": 5981,
      "rant": 5982,
      "war": 5983,
      "Ġign": 5984,
      "itors": 5985,
      "Ġfellow": 5986,
      "ĠSk": 5987,
      "ĠTheatre": 5988,
      "ĠBishop": 5989,
      "usal": 5990,
      "Ġaltar": 5991,
      "Ġcomic": 5992,
      "Ġseat": 5993,
      "Ġnote": 5994,
      "Ġcontrib": 5995,
      "Ġreserv": 5996,
      "Ġ59": 5997,
      "ressive": 5998,
      "Ġcommittee": 5999,
      "ĠAnonymous": 6000,
      "Ġundert": 6001,
      "Ġfilming": 6002,
      "Ġassass": 6003,
      "Ġsubmar": 6004,
      "Ġacres": 6005,
      "Ġdoor": 6006,
      "Ġtrav": 6007,
      "Ġperforming": 6008,
      "Ġ1967": 6009,
      "ĠConn": 6010,
      "ructure": 6011,
      "ĠCarib": 6012,
      "Ġclubs": 6013,
      "Ġcompetitions": 6014,
      "ĠBraz": 6015,
      "Ġcollege": 6016,
      "Ġassociation": 6017,
      "Ġclosely": 6018,
      "ĠOde": 6019,
      "Ġexisting": 6020,
      "Ġapplied": 6021,
      "Ġhabitat": 6022,
      "ĠRadio": 6023,
      "Ġweakened": 6024,
      "ĠHornung": 6025,
      "Ġunsuccess": 6026,
      "vens": 6027,
      "Ġtrou": 6028,
      "Ġtells": 6029,
      "Ġfashion": 6030,
      "isf": 6031,
      "Ġps": 6032,
      "ĠAston": 6033,
      "ĠAML": 6034,
      "iling": 6035,
      "ĠBi": 6036,
      "ĠLife": 6037,
      "agre": 6038,
      "agle": 6039,
      "iston": 6040,
      "ĠKenn": 6041,
      "Ġreconst": 6042,
      "Ġroof": 6043,
      "Ġperhaps": 6044,
      "Ġdescend": 6045,
      "Ġ66": 6046,
      "Ġ98": 6047,
      "Ġtruth": 6048,
      "ĠMarc": 6049,
      "Ġneither": 6050,
      "Ġsubstant": 6051,
      "Ġ175": 6052,
      "Ġdistingu": 6053,
      "Ġprovides": 6054,
      "Ġ1914": 6055,
      "Ġbattalions": 6056,
      "Ġserves": 6057,
      "Ġcapable": 6058,
      "Ġgreatly": 6059,
      "Ġappeal": 6060,
      "ĠMountain": 6061,
      "Ġcorrect": 6062,
      "Ġcorrespond": 6063,
      "Ġlearned": 6064,
      "Ġpainting": 6065,
      "Ġarchaeological": 6066,
      "Ġderived": 6067,
      "Ġreinforce": 6068,
      "Ġpilot": 6069,
      "Ġdetails": 6070,
      "Ġpurpose": 6071,
      "Ġadministration": 6072,
      "Ġopportunity": 6073,
      "Ġceremony": 6074,
      "Ġoccasionally": 6075,
      "ĠCaribbe": 6076,
      "OT": 6077,
      "burg": 6078,
      "var": 6079,
      "ona": 6080,
      "Ġsom": 6081,
      "Ġsort": 6082,
      "Ġfilled": 6083,
      "Ġbought": 6084,
      "Ġhyp": 6085,
      "entially": 6086,
      "Ġthing": 6087,
      "Ġones": 6088,
      "ĠHon": 6089,
      "ĠDota": 6090,
      "rait": 6091,
      "ĠOh": 6092,
      "Ġsufficient": 6093,
      "ĠInc": 6094,
      "ĠStew": 6095,
      "ountain": 6096,
      "Ġsupposed": 6097,
      "Ġexpans": 6098,
      "Ġreceiving": 6099,
      "Ġinvited": 6100,
      "Ġheaded": 6101,
      "Ġeditor": 6102,
      "Ġprotection": 6103,
      "Ġstoryline": 6104,
      "ĠBroad": 6105,
      "Ġbasket": 6106,
      "Ġspeaking": 6107,
      "Ġskin": 6108,
      "Ġencounter": 6109,
      "Ġhousehold": 6110,
      "Ġtechnique": 6111,
      "Ġneck": 6112,
      "Ġinnings": 6113,
      "ĠArchae": 6114,
      "Ġvehicles": 6115,
      "Ġdissipated": 6116,
      "ĠChelsea": 6117,
      "Ġchurches": 6118,
      "ĠDouglas": 6119,
      "ĠCaribbean": 6120,
      "GN": 6121,
      "RE": 6122,
      "VN": 6123,
      "la": 6124,
      "Ġaim": 6125,
      "inj": 6126,
      "oral": 6127,
      "Ġcit": 6128,
      "Ġcra": 6129,
      "Ġcrop": 6130,
      "Ġdrew": 6131,
      "Ġhat": 6132,
      "Ġeu": 6133,
      "ĠMel": 6134,
      "uri": 6135,
      "ĠDet": 6136,
      "ĠLow": 6137,
      "ĠLieutenant": 6138,
      "ĠJay": 6139,
      "agn": 6140,
      "ĠERA": 6141,
      "Ġseg": 6142,
      "abil": 6143,
      "pton": 6144,
      "ĠVol": 6145,
      "Ġevac": 6146,
      "ropri": 6147,
      "ĠAsia": 6148,
      "Ġacid": 6149,
      "Ġgoes": 6150,
      "Ġreceive": 6151,
      "Ġ1945": 6152,
      "Ġ1971": 6153,
      "ĠWhat": 6154,
      "Ġanything": 6155,
      "Ġclassified": 6156,
      "Ġtypical": 6157,
      "Ġviewed": 6158,
      "ĠAbout": 6159,
      "ĠPerry": 6160,
      "Ġsurvived": 6161,
      "Ġislands": 6162,
      "iece": 6163,
      "Ġwidespread": 6164,
      "idden": 6165,
      "Ġmassive": 6166,
      "Ġmotion": 6167,
      "ĠCardinal": 6168,
      "Ġstopped": 6169,
      "ĠMaeda": 6170,
      "Ġdrama": 6171,
      "ĠGeorgian": 6172,
      "Ġsoutheast": 6173,
      "ĠFreder": 6174,
      "Ġastron": 6175,
      "ĠConstantine": 6176,
      "ĠHibari": 6177,
      "lik": 6178,
      "rist": 6179,
      "ruli": 6180,
      "tty": 6181,
      "ÅĤ": 6182,
      "Ġopt": 6183,
      "Ġfuel": 6184,
      "ĠAge": 6185,
      "ilton": 6186,
      "Ġload": 6187,
      "acity": 6188,
      "ĠMTV": 6189,
      "ola": 6190,
      "ĠHin": 6191,
      "ĠHard": 6192,
      "ĠRun": 6193,
      "ĠRio": 6194,
      "ĠRÃ©": 6195,
      "Ġwhy": 6196,
      "ĠWind": 6197,
      "opes": 6198,
      "ighter": 6199,
      "Ġcho": 6200,
      "ĠKil": 6201,
      "Ġshared": 6202,
      "apes": 6203,
      "iege": 6204,
      "Ġrob": 6205,
      "ĠYe": 6206,
      "iously": 6207,
      "Ġflights": 6208,
      "Ġsubt": 6209,
      "Ġsoft": 6210,
      "anned": 6211,
      "Ġ1982": 6212,
      "Ġ176": 6213,
      "Ġdistrict": 6214,
      "ĠQedar": 6215,
      "Ġ250": 6216,
      "ĠPrinc": 6217,
      "Ġauthors": 6218,
      "Ġiniti": 6219,
      "ĠRomani": 6220,
      "ĠSimon": 6221,
      "Ġsettlers": 6222,
      "Ġmissing": 6223,
      "glades": 6224,
      "ĠGolden": 6225,
      "Ġtrying": 6226,
      "Ġacquired": 6227,
      "Ġdigital": 6228,
      "Ġconverted": 6229,
      "Ġsafety": 6230,
      "ĠFantasy": 6231,
      "ibrary": 6232,
      "Ġrepeated": 6233,
      "cer": 6234,
      "vis": 6235,
      "Ġice": 6236,
      "inosaur": 6237,
      "Ġcab": 6238,
      "Ġdub": 6239,
      "stances": 6240,
      "Ġlin": 6241,
      "idges": 6242,
      "ivered": 6243,
      "ĠPatt": 6244,
      "ĠGil": 6245,
      "ĠGang": 6246,
      "ĠGram": 6247,
      "ĠJones": 6248,
      "rier": 6249,
      "iful": 6250,
      "Ġrich": 6251,
      "Ġchannel": 6252,
      "Ġexact": 6253,
      "ĠStadium": 6254,
      "Ġspacing": 6255,
      "Ġlegend": 6256,
      "Ġroutes": 6257,
      "mann": 6258,
      "Ġfinish": 6259,
      "ilding": 6260,
      "issance": 6261,
      "Ġlocations": 6262,
      "Ġ1976": 6263,
      "Ġ1956": 6264,
      "Ġ1913": 6265,
      "Ġ1916": 6266,
      "Ġexperiment": 6267,
      "reme": 6268,
      "Ġglass": 6269,
      "Ġwatched": 6270,
      "Ġholding": 6271,
      "Ġbaseball": 6272,
      "Ġrebu": 6273,
      "Ġfunding": 6274,
      "ĠMoz": 6275,
      "Ġfocused": 6276,
      "Ġplanning": 6277,
      "ĠOslo": 6278,
      "Ġdepicted": 6279,
      "ĠSurv": 6280,
      "ĠHoly": 6281,
      "Ġinstrument": 6282,
      "ĠHaiti": 6283,
      "Ġsucceeded": 6284,
      "Ġpermanent": 6285,
      "ĠVenus": 6286,
      "Ġopinion": 6287,
      "ĠShortly": 6288,
      "Ġatmosphere": 6289,
      "ĠPhoen": 6290,
      "Ġwedding": 6291,
      "Ġarranged": 6292,
      "ĠIguanodon": 6293,
      "ĠBrazil": 6294,
      "Ġurban": 6295,
      "Ġtable": 6296,
      "Ġwick": 6297,
      "Ġbowl": 6298,
      "anth": 6299,
      "Ġpack": 6300,
      "Ġmut": 6301,
      "ĠMah": 6302,
      "ĠFel": 6303,
      "ĠFire": 6304,
      "ĠGra": 6305,
      "ĠLenn": 6306,
      "Ġchance": 6307,
      "ĠKat": 6308,
      "apers": 6309,
      "Ġresident": 6310,
      "Ġrose": 6311,
      "Ġoverse": 6312,
      "Ġknew": 6313,
      "Ġdecline": 6314,
      "ĠArts": 6315,
      "oba": 6316,
      "Ġcharter": 6317,
      "Ġassemb": 6318,
      "Ġdefined": 6319,
      "Ġ112": 6320,
      "Ġ1943": 6321,
      "Ġrevolution": 6322,
      "Ġproviding": 6323,
      "ĠAllied": 6324,
      "Ġprotect": 6325,
      "Ġreality": 6326,
      "ĠSimilar": 6327,
      "Ġcreator": 6328,
      "Ġpenalty": 6329,
      "Ġearthquake": 6330,
      "Ġrif": 6331,
      "Ġcredited": 6332,
      "ĠSecretary": 6333,
      "LI": 6334,
      "pass": 6335,
      "Ġtied": 6336,
      "Ġsun": 6337,
      "Ġwins": 6338,
      "Ġdating": 6339,
      "ĠSnow": 6340,
      "uration": 6341,
      "ĠBul": 6342,
      "ĠIGN": 6343,
      "ĠHell": 6344,
      "ĠHomer": 6345,
      "ĠRangers": 6346,
      "ĠGully": 6347,
      "Ġrub": 6348,
      "ĠChronic": 6349,
      "Ġpregn": 6350,
      "formation": 6351,
      "Ġ87": 6352,
      "Ġsupplies": 6353,
      "Ġ1963": 6354,
      "Ġdownload": 6355,
      "Ã©t": 6356,
      "Ġairport": 6357,
      "Ġmoder": 6358,
      "Ġheads": 6359,
      "Ġways": 6360,
      "Ġexplos": 6361,
      "ĠAbb": 6362,
      "Ġdelivered": 6363,
      "ĠStevens": 6364,
      "Ġlaws": 6365,
      "Ġtechnical": 6366,
      "ĠMorrison": 6367,
      "Ġseparated": 6368,
      "Ġrenamed": 6369,
      "ĠEverglades": 6370,
      "evo": 6371,
      "Ġthousands": 6372,
      "ĠAdditionally": 6373,
      "ĠHindu": 6374,
      "SB": 6375,
      "crib": 6376,
      "gÃ©": 6377,
      "hat": 6378,
      "min": 6379,
      "Ġsan": 6380,
      "Ġfair": 6381,
      "Ġdry": 6382,
      "ĠTop": 6383,
      "ĠSound": 6384,
      "ador": 6385,
      "Ġgal": 6386,
      "Ġrural": 6387,
      "Ġselect": 6388,
      "essing": 6389,
      "ears": 6390,
      "ĠUTC": 6391,
      "ube": 6392,
      "okes": 6393,
      "Ġenl": 6394,
      "Ġteaching": 6395,
      "issipp": 6396,
      "Ġsecure": 6397,
      "attle": 6398,
      "ĠArthur": 6399,
      "Ġcolour": 6400,
      "Ġregime": 6401,
      "Ġemperor": 6402,
      "ĠCommittee": 6403,
      "ĠAustralians": 6404,
      "Ġturning": 6405,
      "Ġcommanded": 6406,
      "Ġopposition": 6407,
      "ivalent": 6408,
      "Ġcourts": 6409,
      "Ġsurviv": 6410,
      "ĠMississipp": 6411,
      "Ġcertified": 6412,
      "ipping": 6413,
      "ĠWalter": 6414,
      "Ġeyes": 6415,
      "Ġassistance": 6416,
      "Ġremainder": 6417,
      "ĠHollywood": 6418,
      "Ġjourney": 6419,
      "Ġindicate": 6420,
      "Ġconsisting": 6421,
      "ĠBradford": 6422,
      "ĠAlexander": 6423,
      "ĠOffice": 6424,
      "Ġpowers": 6425,
      "ĠColumbia": 6426,
      "ĠTruj": 6427,
      "ĠSunday": 6428,
      "ĠFriends": 6429,
      "oh": 6430,
      "Ġaware": 6431,
      "erted": 6432,
      "rell": 6433,
      "Ġcard": 6434,
      "Ġpup": 6435,
      "Ġdrug": 6436,
      "Ġharm": 6437,
      "ĠTel": 6438,
      "ĠCop": 6439,
      "Ġlit": 6440,
      "Ġlov": 6441,
      "ĠMul": 6442,
      "ĠPu": 6443,
      "ĠRon": 6444,
      "ĠNative": 6445,
      "estone": 6446,
      "opher": 6447,
      "Ġsud": 6448,
      "ardo": 6449,
      "aked": 6450,
      "Ġimpr": 6451,
      "Ġattached": 6452,
      "ĠMarine": 6453,
      "Ġquite": 6454,
      "Ġhighlight": 6455,
      "Ġnoisy": 6456,
      "Ġsurrender": 6457,
      "Ġaddress": 6458,
      "Ġ1978": 6459,
      "Ġdisturb": 6460,
      "Ġoccurs": 6461,
      "Ġ1953": 6462,
      "Ġcamps": 6463,
      "Ġturns": 6464,
      "Ġviews": 6465,
      "Ġreferences": 6466,
      "Ġvalley": 6467,
      "ĠMaryland": 6468,
      "ĠMontana": 6469,
      "Ġeconomy": 6470,
      "Ġestablishment": 6471,
      "ĠCroatian": 6472,
      "ĠDemocr": 6473,
      "ĠCritical": 6474,
      "ĠDirector": 6475,
      "Ġhydro": 6476,
      "ĠTrujillo": 6477,
      "dal": 6478,
      "ients": 6479,
      "nest": 6480,
      "rin": 6481,
      "ture": 6482,
      "ĪĴ": 6483,
      "Ġfan": 6484,
      "Ġbranch": 6485,
      "ĠSav": 6486,
      "entions": 6487,
      "ĠML": 6488,
      "ĠMid": 6489,
      "ĠMaster": 6490,
      "othes": 6491,
      "Ġstore": 6492,
      "ĠDom": 6493,
      "ĠFish": 6494,
      "uma": 6495,
      "agues": 6496,
      "Ġpros": 6497,
      "Ġvic": 6498,
      "ewhere": 6499,
      "ĠâĪĴ": 6500,
      "Ġleaves": 6501,
      "Ġresist": 6502,
      "ĠAlan": 6503,
      "Ġfinishing": 6504,
      "ĠAnton": 6505,
      "icted": 6506,
      "Ġinterior": 6507,
      "itsune": 6508,
      "Ġmonarch": 6509,
      "Ġstudied": 6510,
      "Ġreputation": 6511,
      "Ġleads": 6512,
      "Ġdistribution": 6513,
      "ception": 6514,
      "Ġsuccessor": 6515,
      "Ġreplace": 6516,
      "ĠStef": 6517,
      "ĠExp": 6518,
      "Ġproducing": 6519,
      "Ġcircum": 6520,
      "Ġmissions": 6521,
      "Ġdenied": 6522,
      "Ġimmig": 6523,
      "Ġshooting": 6524,
      "Ġadapted": 6525,
      "Ġmethods": 6526,
      "Ġpuzz": 6527,
      "ĠCharlie": 6528,
      "ĠEngineer": 6529,
      "Ġportrayed": 6530,
      "ĠStephen": 6531,
      "ĠRoxas": 6532,
      "ĠMississippi": 6533,
      "bur": 6534,
      "break": 6535,
      "iÄĩ": 6536,
      "rations": 6537,
      "Ã¸": 6538,
      "real": 6539,
      "Ġworth": 6540,
      "Ġfranch": 6541,
      "Ġbaby": 6542,
      "ĠSap": 6543,
      "Ġlic": 6544,
      "Ġlane": 6545,
      "ĠHug": 6546,
      "ĠPress": 6547,
      "ĠDi": 6548,
      "ĠFlow": 6549,
      "ĠNBC": 6550,
      "rien": 6551,
      "ĠEdu": 6552,
      "aka": 6553,
      "onder": 6554,
      "Ġoffense": 6555,
      "Ġprey": 6556,
      "Ġupd": 6557,
      "Ġ69": 6558,
      "Ġgameplay": 6559,
      "Ġentry": 6560,
      "Ġentering": 6561,
      "Ġobt": 6562,
      "ĠPlunk": 6563,
      "Ġcharacteristics": 6564,
      "Ġ1915": 6565,
      "Ġprotected": 6566,
      "ĠRecording": 6567,
      "Ġwindow": 6568,
      "ĠWithin": 6569,
      "Ġpolitics": 6570,
      "Ġcrime": 6571,
      "Ġgetting": 6572,
      "ĠActivision": 6573,
      "Ġmotor": 6574,
      "Ġmaintain": 6575,
      "ĠHoward": 6576,
      "senal": 6577,
      "ĠSamuel": 6578,
      "Ġworst": 6579,
      "Ġintelligence": 6580,
      "Ġdismissed": 6581,
      "aug": 6582,
      "kh": 6583,
      "ni": 6584,
      "ns": 6585,
      "Ġtell": 6586,
      "inals": 6587,
      "orer": 6588,
      "orters": 6589,
      "Ġcry": 6590,
      "Ġcrown": 6591,
      "Ġpound": 6592,
      "Ġtomb": 6593,
      "Ġdie": 6594,
      "elve": 6595,
      "amber": 6596,
      "acent": 6597,
      "otes": 6598,
      "Ġstones": 6599,
      "ĠRidge": 6600,
      "ĠDNA": 6601,
      "ĠWy": 6602,
      "ĠLoc": 6603,
      "ĠNether": 6604,
      "ctions": 6605,
      "Ġvon": 6606,
      "Ġru": 6607,
      "Ġexerc": 6608,
      "ĠKel": 6609,
      "Ġnoting": 6610,
      "ender": 6611,
      "Ġresour": 6612,
      "Ġjoint": 6613,
      "Ġattributed": 6614,
      "Ġshel": 6615,
      "Ġknots": 6616,
      "ĠMarsh": 6617,
      "Ġcharges": 6618,
      "Ġretire": 6619,
      "Ġmonument": 6620,
      "Ġclasses": 6621,
      "Ġcapacity": 6622,
      "Ġbasin": 6623,
      "Ġelectric": 6624,
      "Ġnovels": 6625,
      "Ġhistoric": 6626,
      "ĠEliz": 6627,
      "Ġcharts": 6628,
      "Ġintroduction": 6629,
      "Ġinterested": 6630,
      "ĠCalvert": 6631,
      "Ġholds": 6632,
      "Ġdollars": 6633,
      "Ġdiscussed": 6634,
      "Ġphilosoph": 6635,
      "Ġmushroom": 6636,
      "ĠIsabella": 6637,
      "eenth": 6638,
      "gie": 6639,
      "wise": 6640,
      "Ġsector": 6641,
      "itage": 6642,
      "itled": 6643,
      "Ġcinem": 6644,
      "Ġfer": 6645,
      "ĠTs": 6646,
      "ĠTrib": 6647,
      "ĠCam": 6648,
      "ĠBos": 6649,
      "ĠPope": 6650,
      "ĠDanny": 6651,
      "ĠWalk": 6652,
      "osis": 6653,
      "osure": 6654,
      "ĠJersey": 6655,
      "Ġvan": 6656,
      "Ġvary": 6657,
      "Ġvision": 6658,
      "ĠStrand": 6659,
      "Ġcontest": 6660,
      "Ġagent": 6661,
      "Ġoffers": 6662,
      "ĠYank": 6663,
      "angerous": 6664,
      "Ġ74": 6665,
      "Ġ79": 6666,
      "aws": 6667,
      "Ġ91": 6668,
      "Ġpublisher": 6669,
      "Ġsym": 6670,
      "ajevo": 6671,
      "Ġ1948": 6672,
      "Ġdescribing": 6673,
      "Ġgeneration": 6674,
      "Ġappearing": 6675,
      "Ġ1917": 6676,
      "Ġmedieval": 6677,
      "Ġfields": 6678,
      "Ġsolid": 6679,
      "Ġstatement": 6680,
      "Ġ1890": 6681,
      "Ġpitch": 6682,
      "Ġcoastal": 6683,
      "Ġpredecess": 6684,
      "Ġaccounts": 6685,
      "Ġruled": 6686,
      "Ġrules": 6687,
      "Ġtribes": 6688,
      "Ġchapel": 6689,
      "ĠResear": 6690,
      "Ġcolonial": 6691,
      "Ġrhyth": 6692,
      "ĠSarajevo": 6693,
      "ĠWeekly": 6694,
      "ĠLisa": 6695,
      "Ġyounger": 6696,
      "ĠIndustry": 6697,
      "bles": 6698,
      "ef": 6699,
      "gra": 6700,
      "water": 6701,
      "rets": 6702,
      "Ġcaught": 6703,
      "Ġbond": 6704,
      "Ġinner": 6705,
      "Ġhope": 6706,
      "ĠSa": 6707,
      "ĠSor": 6708,
      "iders": 6709,
      "ivals": 6710,
      "ĠHere": 6711,
      "ĠDaily": 6712,
      "ĠWars": 6713,
      "ĠJif": 6714,
      "ateur": 6715,
      "Ġplants": 6716,
      "Ġkings": 6717,
      "Ġunn": 6718,
      "Ġarts": 6719,
      "Ġmanner": 6720,
      "Ġdesire": 6721,
      "intend": 6722,
      "Ġ88": 6723,
      "Ġreleg": 6724,
      "Ġsoil": 6725,
      "Ġsomeone": 6726,
      "Ġ1979": 6727,
      "Ġinstruct": 6728,
      "Ġ1951": 6729,
      "ĠOrgan": 6730,
      "engers": 6731,
      "Ġbasic": 6732,
      "Ġeverything": 6733,
      "Ġdiscovery": 6734,
      "Ġdifficulty": 6735,
      "offman": 6736,
      "Ġrecognition": 6737,
      "Ġzone": 6738,
      "Ġsynthes": 6739,
      "Ġexception": 6740,
      "Ġapart": 6741,
      "Ġforests": 6742,
      "ĠCampb": 6743,
      "Ġrarely": 6744,
      "Ġconsiderable": 6745,
      "ĠVictoria": 6746,
      "Ġemotional": 6747,
      "Ġninth": 6748,
      "ĠDestiny": 6749,
      "Ġarticle": 6750,
      "Ġrestaurant": 6751,
      "Ġeurop": 6752,
      "ĠFrederick": 6753,
      "ĠYankovic": 6754,
      "20": 6755,
      "Ã§": 6756,
      "Ġur": 6757,
      "Ġtaught": 6758,
      "Ġworship": 6759,
      "Ġcold": 6760,
      "ician": 6761,
      "Ġmine": 6762,
      "Ġmunic": 6763,
      "Ġha": 6764,
      "Ġhill": 6765,
      "Ġhall": 6766,
      "ĠAround": 6767,
      "ĠChen": 6768,
      "aments": 6769,
      "Ġnob": 6770,
      "Ġgall": 6771,
      "igades": 6772,
      "using": 6773,
      "ĠRem": 6774,
      "union": 6775,
      "ĠFair": 6776,
      "ĠElect": 6777,
      "ĠInit": 6778,
      "ables": 6779,
      "abeth": 6780,
      "Ġshore": 6781,
      "ultane": 6782,
      "Ġwealth": 6783,
      "ĠLee": 6784,
      "ĠJoe": 6785,
      "Ġ121": 6786,
      "Ġ1961": 6787,
      "Ġlanded": 6788,
      "Ġ1954": 6789,
      "Ġevening": 6790,
      "Ġopponents": 6791,
      "Ġreplacement": 6792,
      "ĠTelevision": 6793,
      "Ġinvolvement": 6794,
      "Ġsettle": 6795,
      "graded": 6796,
      "Ġvolunte": 6797,
      "Ġnomination": 6798,
      "Ġspecifically": 6799,
      "Ġwooden": 6800,
      "ĠTransport": 6801,
      "Ġhotel": 6802,
      "ĠSomali": 6803,
      "ĠClarkson": 6804,
      "Ġthirty": 6805,
      "ĠRolling": 6806,
      "ĠMozamb": 6807,
      "Ġsudden": 6808,
      "AC": 6809,
      "Brien": 6810,
      "eper": 6811,
      "iÅ": 6812,
      "iary": 6813,
      "lan": 6814,
      "yles": 6815,
      "Ġtal": 6816,
      "Ġtie": 6817,
      "reets": 6818,
      "atures": 6819,
      "orous": 6820,
      "Ġfish": 6821,
      "Ġbal": 6822,
      "ingale": 6823,
      "leep": 6824,
      "ĠAR": 6825,
      "ĠSi": 6826,
      "ĠSanta": 6827,
      "ĠSpring": 6828,
      "eless": 6829,
      "Ġstream": 6830,
      "verse": 6831,
      "ceived": 6832,
      "ĠDA": 6833,
      "ĠFame": 6834,
      "Ġconsequ": 6835,
      "ĠLords": 6836,
      "istol": 6837,
      "avia": 6838,
      "Ġleuk": 6839,
      "Ġju": 6840,
      "Ġjazz": 6841,
      "ĠYan": 6842,
      "ropol": 6843,
      "Ġsecured": 6844,
      "ĠAsh": 6845,
      "Ġ99": 6846,
      "Ġaccur": 6847,
      "ĠLev": 6848,
      "inking": 6849,
      "Ġcarbon": 6850,
      "Ġ1937": 6851,
      "ĠMuslim": 6852,
      "Ġbelieves": 6853,
      "ĠOrder": 6854,
      "Ġcommunities": 6855,
      "ĠSimps": 6856,
      "Ġdivine": 6857,
      "ĠRoberts": 6858,
      "Ġpoems": 6859,
      "aska": 6860,
      "ĠDuke": 6861,
      "Ġindustrial": 6862,
      "Ġveget": 6863,
      "ĠSingles": 6864,
      "ĠJerusal": 6865,
      "Ġintersection": 6866,
      "ĠCastle": 6867,
      "Ġpicked": 6868,
      "Ġcontroversy": 6869,
      "ranean": 6870,
      "ĠWilde": 6871,
      "Ġrecommended": 6872,
      "Ġsplit": 6873,
      "ĠColonel": 6874,
      "Ġfungus": 6875,
      "ĠSkye": 6876,
      "ĠBono": 6877,
      "ĠModern": 6878,
      "ĠFrancisco": 6879,
      "ĠJifna": 6880,
      "ĠSimpsons": 6881,
      "ĠJerusalem": 6882,
      "ban": 6883,
      "rast": 6884,
      "theless": 6885,
      "va": 6886,
      "á»": 6887,
      "Ġic": 6888,
      "Ġsed": 6889,
      "Ġsoul": 6890,
      "Ġwrong": 6891,
      "Ġfit": 6892,
      "Ġfaces": 6893,
      "Ġdim": 6894,
      "Ġdock": 6895,
      "ĠCab": 6896,
      "ĠCory": 6897,
      "ussion": 6898,
      "ĠRif": 6899,
      "ĠDur": 6900,
      "ĠWin": 6901,
      "Ġconvers": 6902,
      "ĠNap": 6903,
      "ĠNick": 6904,
      "ĠJun": 6905,
      "agu": 6906,
      "Ġvide": 6907,
      "allow": 6908,
      "ipe": 6909,
      "Ġwhereas": 6910,
      "ĠShak": 6911,
      "rows": 6912,
      "Ġdepend": 6913,
      "Ġleadership": 6914,
      "Ġsigning": 6915,
      "ĠCarter": 6916,
      "ĠPlot": 6917,
      "Ġ1955": 6918,
      "Ġstrateg": 6919,
      "Ġorganizations": 6920,
      "iveness": 6921,
      "ĠPrime": 6922,
      "Ġlegs": 6923,
      "Ġstandards": 6924,
      "ĠHamilton": 6925,
      "Ġmissed": 6926,
      "Ġdrawing": 6927,
      "Ġlaunch": 6928,
      "ĠÃĹ": 6929,
      "Ġabsor": 6930,
      "ĠOlympics": 6931,
      "Ġconcerns": 6932,
      "ĠMilitary": 6933,
      "Ġscholar": 6934,
      "Ġprincipal": 6935,
      "ĠHuman": 6936,
      "Ġextremely": 6937,
      "Ġspecimens": 6938,
      "ĠAdams": 6939,
      "ĠIndependent": 6940,
      "ĠArgentina": 6941,
      "cape": 6942,
      "ext": 6943,
      "iar": 6944,
      "pective": 6945,
      "onica": 6946,
      "rec": 6947,
      "Ġske": 6948,
      "Ġsession": 6949,
      "Ġbes": 6950,
      "Ġble": 6951,
      "ĠAD": 6952,
      "ĠSand": 6953,
      "adow": 6954,
      "iday": 6955,
      "imal": 6956,
      "ĠPan": 6957,
      "ĠPul": 6958,
      "ĠPower": 6959,
      "Ġconference": 6960,
      "Ġ1900": 6961,
      "Ġexisted": 6962,
      "Ġyouth": 6963,
      "Ġparties": 6964,
      "wealth": 6965,
      "Ġteeth": 6966,
      "ĠAnc": 6967,
      "Ġ89": 6968,
      "Ġmuscar": 6969,
      "Ġindig": 6970,
      "Ġminister": 6971,
      "Ġshowing": 6972,
      "iversary": 6973,
      "Ġdistributed": 6974,
      "Ġwarm": 6975,
      "Ġ1958": 6976,
      "ĠForces": 6977,
      "ĠBeach": 6978,
      "Ġtries": 6979,
      "Ġapproached": 6980,
      "Ġdemol": 6981,
      "ĠEarl": 6982,
      "Ġspeech": 6983,
      "Ġconnection": 6984,
      "Ġrelationships": 6985,
      "Ġtreaty": 6986,
      "Ġthreatened": 6987,
      "Ġgrav": 6988,
      "Ġsurrounded": 6989,
      "Ġemerged": 6990,
      "Ġchemical": 6991,
      "ĠWriting": 6992,
      "Ġdiameter": 6993,
      "ĠBanai": 6994,
      "Ġpsych": 6995,
      "Ġeuropium": 6996,
      "CA": 6997,
      "bie": 6998,
      "eor": 6999,
      "nes": 7000,
      "point": 7001,
      "Ġib": 7002,
      "edom": 7003,
      "Ġoption": 7004,
      "Ġwants": 7005,
      "organ": 7006,
      "itals": 7007,
      "Ġcorp": 7008,
      "Ġfal": 7009,
      "Ġfle": 7010,
      "inger": 7011,
      "Ġpage": 7012,
      "Ġmart": 7013,
      "Ġrect": 7014,
      "ĠCE": 7015,
      "amm": 7016,
      "ĠBank": 7017,
      "ĠIV": 7018,
      "ĠIron": 7019,
      "ĠHung": 7020,
      "Ġstem": 7021,
      "utt": 7022,
      "ĠPoint": 7023,
      "ĠDisc": 7024,
      "Ġalien": 7025,
      "cho": 7026,
      "ĠWW": 7027,
      "Ġcong": 7028,
      "uda": 7029,
      "oca": 7030,
      "Ġshark": 7031,
      "ĠChief": 7032,
      "Ġintention": 7033,
      "Ġpartial": 7034,
      "Ġoverw": 7035,
      "Ġdecor": 7036,
      "Ġdepartment": 7037,
      "Ġ1949": 7038,
      "Ġ1977": 7039,
      "Ġbright": 7040,
      "Ġpointed": 7041,
      "aurus": 7042,
      "Ġoppos": 7043,
      "Ġhistorians": 7044,
      "Ġadmitted": 7045,
      "Ġseeing": 7046,
      "Ġfacing": 7047,
      "Ġcrossed": 7048,
      "Ġregularly": 7049,
      "ĠDepression": 7050,
      "Ġrailway": 7051,
      "Ġimmediate": 7052,
      "Ġfiring": 7053,
      "Ġfavorite": 7054,
      "Ġhoped": 7055,
      "Ġdocumentary": 7056,
      "Ġconstitution": 7057,
      "Ġinstitutions": 7058,
      "Ġalternative": 7059,
      "Ġlbw": 7060,
      "Ġratings": 7061,
      "ĠNorman": 7062,
      "ĠRyan": 7063,
      "ĠRoger": 7064,
      "Ġexpedition": 7065,
      "Ġunusual": 7066,
      "Ġisolated": 7067,
      "Ġexpansion": 7068,
      "Ġcitiz": 7069,
      "ĠLennon": 7070,
      "ba": 7071,
      "iour": 7072,
      "ooth": 7073,
      "sch": 7074,
      "wich": 7075,
      "zen": 7076,
      "à¤": 7077,
      "Ġsulf": 7078,
      "Ġinland": 7079,
      "ĠAld": 7080,
      "Ġlap": 7081,
      "Ġeighth": 7082,
      "Ġgather": 7083,
      "uses": 7084,
      "usad": 7085,
      "aya": 7086,
      "ĠPerson": 7087,
      "ĠDesc": 7088,
      "eman": 7089,
      "emia": 7090,
      "ĠFern": 7091,
      "ĠFras": 7092,
      "ĠGoffman": 7093,
      "Ġchampion": 7094,
      "Ġrecre": 7095,
      "ĠUnlike": 7096,
      "formed": 7097,
      "Ġconsum": 7098,
      "Ġflo": 7099,
      "Ġregional": 7100,
      "Ġassumed": 7101,
      "Ġ07": 7102,
      "ledon": 7103,
      "Ġowner": 7104,
      "Ġdesignation": 7105,
      "ossible": 7106,
      "Ġanniversary": 7107,
      "ĠHergÃ©": 7108,
      "Ġprotests": 7109,
      "Ġbreaking": 7110,
      "Ġreviewer": 7111,
      "Ġmarks": 7112,
      "Ġstrongly": 7113,
      "Ġchanging": 7114,
      "spec": 7115,
      "ombat": 7116,
      "Ġwatch": 7117,
      "Ġdestroyers": 7118,
      "ÃŃvar": 7119,
      "Ġtreated": 7120,
      "Ġlanguages": 7121,
      "Ġsequel": 7122,
      "Ġliterary": 7123,
      "ĠTerrit": 7124,
      "Ġancest": 7125,
      "ĠRhodes": 7126,
      "Ġexamples": 7127,
      "Ġbringing": 7128,
      "ĠJaneiro": 7129,
      "Ġwatershed": 7130,
      "ĠBolÃŃvar": 7131,
      "Ġinhabit": 7132,
      "Ġmessage": 7133,
      "Ġromantic": 7134,
      "Ġduties": 7135,
      "Ġprotagonist": 7136,
      "ĠKilmer": 7137,
      "Ġfranchise": 7138,
      "ĠSaprang": 7139,
      "nell": 7140,
      "rates": 7141,
      "worth": 7142,
      "inet": 7143,
      "erog": 7144,
      "Ġsections": 7145,
      "Ġwinner": 7146,
      "ĠTest": 7147,
      "ĠTower": 7148,
      "sta": 7149,
      "ĠMand": 7150,
      "ĠBal": 7151,
      "ĠBall": 7152,
      "ĠBase": 7153,
      "ĠBert": 7154,
      "eton": 7155,
      "otic": 7156,
      "Ġstadium": 7157,
      "ĠPA": 7158,
      "ĠPine": 7159,
      "ĠWimb": 7160,
      "rapped": 7161,
      "ĠLanc": 7162,
      "Ġorchest": 7163,
      "ockey": 7164,
      "ĠKit": 7165,
      "ĠStation": 7166,
      "ĠStory": 7167,
      "ĠStock": 7168,
      "ogether": 7169,
      "ĠHearts": 7170,
      "Ġaged": 7171,
      "Ġoutf": 7172,
      "Ġ63": 7173,
      "Ġ93": 7174,
      "Ġmeets": 7175,
      "Ġretreat": 7176,
      "Ġindicated": 7177,
      "Ġ06": 7178,
      "ekÄģn": 7179,
      "Ġ1983": 7180,
      "Ġcrest": 7181,
      "ĠGerard": 7182,
      "Ġairline": 7183,
      "ĠColor": 7184,
      "Ġ1910": 7185,
      "ĠGuy": 7186,
      "Ġdetailed": 7187,
      "Ġapproved": 7188,
      "istered": 7189,
      "encies": 7190,
      "Ġgenre": 7191,
      "Ġcoup": 7192,
      "Ġimprove": 7193,
      "Ġengineering": 7194,
      "Ġgrey": 7195,
      "ĠSquare": 7196,
      "Ġcompletion": 7197,
      "ĠLawton": 7198,
      "ĠJean": 7199,
      "Ġattracted": 7200,
      "ĠBCE": 7201,
      "ĠGeorgia": 7202,
      "onnaissance": 7203,
      "Ġwearing": 7204,
      "Ġspecimen": 7205,
      "ĠBurns": 7206,
      "Ġrescue": 7207,
      "ĠJournal": 7208,
      "Ġacademic": 7209,
      "Ġeggs": 7210,
      "Ġeasily": 7211,
      "ĠResearch": 7212,
      "ĠWimbledon": 7213,
      "how": 7214,
      "know": 7215,
      "ois": 7216,
      "Ġsam": 7217,
      "Ġsell": 7218,
      "Ġocean": 7219,
      "Ġcul": 7220,
      "Ġbay": 7221,
      "Ġpric": 7222,
      "lets": 7223,
      "ĠSher": 7224,
      "ĠCru": 7225,
      "ĠCook": 7226,
      "ĠCorn": 7227,
      "Ġlob": 7228,
      "ĠBass": 7229,
      "igation": 7230,
      "Ġstreak": 7231,
      "ĠRaj": 7232,
      "ĠWolf": 7233,
      "Ġconqu": 7234,
      "osm": 7235,
      "ĠNeb": 7236,
      "aga": 7237,
      "agas": 7238,
      "ĠOffic": 7239,
      "Ġproport": 7240,
      "ppet": 7241,
      "Ġshif": 7242,
      "Ġspaces": 7243,
      "oked": 7244,
      "Ġcloud": 7245,
      "range": 7246,
      "ĠThird": 7247,
      "Ġpreced": 7248,
      "Ġflat": 7249,
      "Ġaccused": 7250,
      "Ġinterchange": 7251,
      "Ġcoord": 7252,
      "Ġacknow": 7253,
      "Ġdepos": 7254,
      "ĠConc": 7255,
      "Ġimplement": 7256,
      "Ġstarling": 7257,
      "Ġattempting": 7258,
      "Ġmedium": 7259,
      "Ġterminus": 7260,
      "Ġeffectively": 7261,
      "ĠXe": 7262,
      "Ġsurviving": 7263,
      "Ġequal": 7264,
      "Ġreading": 7265,
      "Ġcatch": 7266,
      "Ġlooked": 7267,
      "Ġsettled": 7268,
      "Ġinspiration": 7269,
      "Ġtraveled": 7270,
      "Ġpractices": 7271,
      "Ġterritories": 7272,
      "Ġcivilian": 7273,
      "ĠRichardson": 7274,
      "Ġfeeling": 7275,
      "Ġassistant": 7276,
      "Ġhappy": 7277,
      "ĠCambridge": 7278,
      "Ġrhym": 7279,
      "Ġchallenge": 7280,
      "ĠSomalia": 7281,
      "ĠAttorney": 7282,
      "Ġadjacent": 7283,
      "Ġagricultural": 7284,
      "Ġencouraged": 7285,
      "Ġethn": 7286,
      "ĠAdmiral": 7287,
      "cation": 7288,
      "dess": 7289,
      "hl": 7290,
      "mel": 7291,
      "Ê»": 7292,
      "Ġtick": 7293,
      "heim": 7294,
      "Ġsight": 7295,
      "Ġswe": 7296,
      "itated": 7297,
      "ĠTam": 7298,
      "ĠSb": 7299,
      "Ġet": 7300,
      "Ġnone": 7301,
      "Ġnick": 7302,
      "ĠBed": 7303,
      "ĠHun": 7304,
      "Ġstead": 7305,
      "ĠPass": 7306,
      "emet": 7307,
      "ĠLab": 7308,
      "ĠNow": 7309,
      "Ġanth": 7310,
      "Ġhear": 7311,
      "ifer": 7312,
      "Ġvac": 7313,
      "Ġraces": 7314,
      "Ġritual": 7315,
      "ewhat": 7316,
      "Ġchronic": 7317,
      "Ġorn": 7318,
      "abled": 7319,
      "ĠKombat": 7320,
      "Ġplain": 7321,
      "Ġshots": 7322,
      "Ġcompounds": 7323,
      "Ġrecalled": 7324,
      "Ġpartly": 7325,
      "Ġserial": 7326,
      "Ġevil": 7327,
      "ĠAniston": 7328,
      "aware": 7329,
      "ĠMarg": 7330,
      "Ġaccomm": 7331,
      "Ġ05": 7332,
      "Ġ122": 7333,
      "ennis": 7334,
      "Ġpossession": 7335,
      "Ġvisible": 7336,
      "Ġstands": 7337,
      "attered": 7338,
      "Ġconvoy": 7339,
      "Ġpatron": 7340,
      "Ġ1909": 7341,
      "ĠKeamy": 7342,
      "Ġidentity": 7343,
      "Ġarmor": 7344,
      "Ġ1880": 7345,
      "Ġmulti": 7346,
      "Ġpainted": 7347,
      "Ġbrothers": 7348,
      "going": 7349,
      "Ġtowers": 7350,
      "ĠEvery": 7351,
      "ĠFormula": 7352,
      "Ġchalleng": 7353,
      "ĠGarc": 7354,
      "Ġrecovered": 7355,
      "Ġextreme": 7356,
      "Ġseemed": 7357,
      "Ġscientific": 7358,
      "Ġcandidate": 7359,
      "ĠCommonwealth": 7360,
      "ĠMortal": 7361,
      "Ġarrangement": 7362,
      "ĠJesus": 7363,
      "Ġsomewhat": 7364,
      "Ġobtained": 7365,
      "Ġvideos": 7366,
      "Ġaccommod": 7367,
      "SA": 7368,
      "ds": 7369,
      "ĠÅ": 7370,
      "Ġtone": 7371,
      "Ġtheatre": 7372,
      "Ġcens": 7373,
      "Ġcycle": 7374,
      "isis": 7375,
      "Ġbat": 7376,
      "icate": 7377,
      "icity": 7378,
      "Ġhip": 7379,
      "Ġhits": 7380,
      "ĠTon": 7381,
      "ĠType": 7382,
      "entures": 7383,
      "ĠBron": 7384,
      "Ġgross": 7385,
      "idae": 7386,
      "igins": 7387,
      "ĠHor": 7388,
      "ĠHospital": 7389,
      "utz": 7390,
      "thosaurus": 7391,
      "ĠGun": 7392,
      "ĠJoy": 7393,
      "ĠOwen": 7394,
      "Ġproceed": 7395,
      "Ġexha": 7396,
      "oven": 7397,
      "Ġ58": 7398,
      "Ġschem": 7399,
      "achus": 7400,
      "Ġimpl": 7401,
      "Ġteach": 7402,
      "Ġconsult": 7403,
      "ĠMarines": 7404,
      "Ġrelative": 7405,
      "Ġfled": 7406,
      "Ġverse": 7407,
      "Ġacts": 7408,
      "Ġraid": 7409,
      "annah": 7410,
      "Ġ08": 7411,
      "roscop": 7412,
      "Ġpreserved": 7413,
      "ĠJohnston": 7414,
      "Ġestate": 7415,
      "ĠIslam": 7416,
      "Ġpassage": 7417,
      "ĠGermans": 7418,
      "Ġ1931": 7419,
      "Ġ1935": 7420,
      "Ġ1912": 7421,
      "espe": 7422,
      "Ġtwelve": 7423,
      "Ġfootage": 7424,
      "Ġconvin": 7425,
      "ĠPoland": 7426,
      "Ġreduce": 7427,
      "ĠIslands": 7428,
      "stitution": 7429,
      "Ġhosted": 7430,
      "Ġfunds": 7431,
      "Ġsuffering": 7432,
      "Ġabsol": 7433,
      "iques": 7434,
      "ĠFIA": 7435,
      "ĠArabic": 7436,
      "Ġlinked": 7437,
      "Ġspirit": 7438,
      "Ġcontroversial": 7439,
      "ĠDesign": 7440,
      "Ġsculpture": 7441,
      "Ġcustom": 7442,
      "Ġbasketball": 7443,
      "ĠPlunketts": 7444,
      "ĠElizabeth": 7445,
      "ĠCorythosaurus": 7446,
      "ĠFraser": 7447,
      "ait": 7448,
      "bishop": 7449,
      "Ġtailed": 7450,
      "Ġau": 7451,
      "Ġsessions": 7452,
      "Ġsiege": 7453,
      "Ġwars": 7454,
      "Ġcart": 7455,
      "Ġinaug": 7456,
      "Ġdivers": 7457,
      "lete": 7458,
      "ĠTig": 7459,
      "illy": 7460,
      "Ġthin": 7461,
      "elin": 7462,
      "amic": 7463,
      "ĠBark": 7464,
      "olay": 7465,
      "uts": 7466,
      "ĠDC": 7467,
      "ĠDiv": 7468,
      "ĠDyn": 7469,
      "Ġalleg": 7470,
      "ĠGib": 7471,
      "ĠLate": 7472,
      "ĠNintend": 7473,
      "Ġprohib": 7474,
      "Ġshut": 7475,
      "Ġincome": 7476,
      "Ġcontext": 7477,
      "ĠYour": 7478,
      "ensis": 7479,
      "amps": 7480,
      "Ġ68": 7481,
      "Ġ86": 7482,
      "Ġverte": 7483,
      "Ġdefended": 7484,
      "Ġmusc": 7485,
      "ificial": 7486,
      "ĠRele": 7487,
      "Ġexpensive": 7488,
      "athers": 7489,
      "Ġcontinuing": 7490,
      "Ġprovince": 7491,
      "ĠAllah": 7492,
      "Ġattacking": 7493,
      "Ġ1932": 7494,
      "ĠProf": 7495,
      "Ġreviewers": 7496,
      "Ġdestruction": 7497,
      "Ġdebate": 7498,
      "Ġequipped": 7499,
      "ĠPalmy": 7500,
      "Ġsteel": 7501,
      "Ġcirculation": 7502,
      "Ġresponsibility": 7503,
      "Ġlearning": 7504,
      "Ġblocks": 7505,
      "Ġstayed": 7506,
      "Ġconcerned": 7507,
      "ĠHotel": 7508,
      "Ġunderstand": 7509,
      "Ġmoral": 7510,
      "Ġcomposer": 7511,
      "Ġadults": 7512,
      "ĠSpecial": 7513,
      "ĠProtest": 7514,
      "Ġincorporated": 7515,
      "ĠPeninsula": 7516,
      "ĠMarlborough": 7517,
      "Ġparallel": 7518,
      "ĠShakespe": 7519,
      "Ġopposite": 7520,
      "erogative": 7521,
      "ĠNintendo": 7522,
      "ĠShakespeare": 7523,
      "MO": 7524,
      "body": 7525,
      "nal": 7526,
      "Ġtrick": 7527,
      "Ġow": 7528,
      "Ġpushed": 7529,
      "Ġmap": 7530,
      "ĠTechn": 7531,
      "Ġrepr": 7532,
      "ĠSem": 7533,
      "ĠSweet": 7534,
      "state": 7535,
      "Ġgone": 7536,
      "oli": 7537,
      "iminal": 7538,
      "uscript": 7539,
      "ithic": 7540,
      "ĠPict": 7541,
      "ĠDark": 7542,
      "osl": 7543,
      "Ġansw": 7544,
      "rif": 7545,
      "aku": 7546,
      "Ġkitsune": 7547,
      "ĠUr": 7548,
      "aste": 7549,
      "ĠChannel": 7550,
      "Ġreserve": 7551,
      "Ġagree": 7552,
      "arked": 7553,
      "Ġpool": 7554,
      "Ġsongwrit": 7555,
      "Ġ82": 7556,
      "ĠReal": 7557,
      "Ġmusicians": 7558,
      "Ġpassengers": 7559,
      "ĠSpace": 7560,
      "Ġgovernor": 7561,
      "Ġwilling": 7562,
      "Ġ1911": 7563,
      "Ġclassical": 7564,
      "ĠGeoff": 7565,
      "Ġ1921": 7566,
      "Ġ1929": 7567,
      "Ġdriving": 7568,
      "ĠFlight": 7569,
      "Ġelabor": 7570,
      "Ġlowest": 7571,
      "Ġvictims": 7572,
      "Ġpatrol": 7573,
      "Ġlimit": 7574,
      "ĠPalace": 7575,
      "Ġpromote": 7576,
      "Ġcrossing": 7577,
      "Ġmeetings": 7578,
      "Ġstrip": 7579,
      "ĠMedia": 7580,
      "Ġfalling": 7581,
      "Ġrebels": 7582,
      "Ġmeasures": 7583,
      "Ġrenew": 7584,
      "ĠFei": 7585,
      "ĠLawrence": 7586,
      "ĠPatrick": 7587,
      "Ġvoted": 7588,
      "Ġobservations": 7589,
      "Ġthrowing": 7590,
      "hews": 7591,
      "ĠPitman": 7592,
      "iplom": 7593,
      "ĠStanley": 7594,
      "Ġoccasions": 7595,
      "Ġremnants": 7596,
      "ĠConstruction": 7597,
      "Ġinitiative": 7598,
      "ĠNetherlands": 7599,
      "AT": 7600,
      "fare": 7601,
      "hol": 7602,
      "pent": 7603,
      "rating": 7604,
      "uv": 7605,
      "vention": 7606,
      "yard": 7607,
      "ĠÎ": 7608,
      "onia": 7609,
      "Ġster": 7610,
      "Ġbrick": 7611,
      "Ġdiet": 7612,
      "Ġhang": 7613,
      "ĠTreat": 7614,
      "ĠAk": 7615,
      "eline": 7616,
      "acle": 7617,
      "otal": 7618,
      "otton": 7619,
      "ĠHob": 7620,
      "ĠRain": 7621,
      "ĠFree": 7622,
      "ĠWic": 7623,
      "ĠLink": 7624,
      "ĠLabor": 7625,
      "ĠOur": 7626,
      "Ġcomments": 7627,
      "Ġprol": 7628,
      "ifies": 7629,
      "Ġray": 7630,
      "Ġrum": 7631,
      "Ġsees": 7632,
      "oceratops": 7633,
      "Ġretained": 7634,
      "Ġacclaim": 7635,
      "Ġraise": 7636,
      "Ġdefences": 7637,
      "Ġ161": 7638,
      "Ġobl": 7639,
      "Ġ1962": 7640,
      "Ġreturns": 7641,
      "Ġ1959": 7642,
      "Ġ1938": 7643,
      "ĠMega": 7644,
      "quez": 7645,
      "alky": 7646,
      "Ġinvolving": 7647,
      "Ġrepresenting": 7648,
      "Ġequivalent": 7649,
      "Ġgoddess": 7650,
      "Ġpraise": 7651,
      "ĠAtlanta": 7652,
      "Ġvillages": 7653,
      "ymph": 7654,
      "Ġpitcher": 7655,
      "Ġdifficulties": 7656,
      "Ġsuperior": 7657,
      "ĠImperial": 7658,
      "Ġbiography": 7659,
      "ĠEmperor": 7660,
      "ĠPlayer": 7661,
      "Ġobjects": 7662,
      "ĠQueens": 7663,
      "Ġintensified": 7664,
      "Ġpurchase": 7665,
      "Ġcarrying": 7666,
      "ĠKorean": 7667,
      "Ġvessels": 7668,
      "Ġfixed": 7669,
      "ĠGuardian": 7670,
      "Ġbatsman": 7671,
      "ĠCambodia": 7672,
      "Ġglobal": 7673,
      "Ġunsuccessful": 7674,
      "ĠStefani": 7675,
      "Ġrhythm": 7676,
      "emetery": 7677,
      "ĠGarcÃŃa": 7678,
      "don": 7679,
      "mes": 7680,
      "rator": 7681,
      "wald": 7682,
      "yer": 7683,
      "zi": 7684,
      "Ġtight": 7685,
      "Ġfine": 7686,
      "Ġfold": 7687,
      "Ġblow": 7688,
      "Ġbone": 7689,
      "Ġpure": 7690,
      "icop": 7691,
      "icide": 7692,
      "ĠAP": 7693,
      "ĠCult": 7694,
      "Ġonline": 7695,
      "ĠBang": 7696,
      "Ġgro": 7697,
      "terbury": 7698,
      "ĠHind": 7699,
      "ĠRaff": 7700,
      "ĠFurt": 7701,
      "chang": 7702,
      "Ġhem": 7703,
      "resents": 7704,
      "iform": 7705,
      "Ġexchange": 7706,
      "Ġunion": 7707,
      "ureau": 7708,
      "Ġcloth": 7709,
      "overs": 7710,
      "Ġcommit": 7711,
      "Ġcommitted": 7712,
      "Ġ67": 7713,
      "Ġamino": 7714,
      "Ġ162": 7715,
      "Ġconcerts": 7716,
      "Ġsimultane": 7717,
      "ĠCanterbury": 7718,
      "echism": 7719,
      "Ġperiods": 7720,
      "Ġcovers": 7721,
      "iterranean": 7722,
      "Ġdefeating": 7723,
      "Ġinfluences": 7724,
      "Ġdivisions": 7725,
      "Ġneeds": 7726,
      "Ġcollaps": 7727,
      "ĠMediterranean": 7728,
      "Ġnarrative": 7729,
      "Ġreveals": 7730,
      "Ġescort": 7731,
      "ĠPrior": 7732,
      "ĠEnterprise": 7733,
      "Ġaccompany": 7734,
      "Ġinternal": 7735,
      "Ġdisappoint": 7736,
      "Ġcamera": 7737,
      "Ġbehaviour": 7738,
      "ĠPalestine": 7739,
      "Ġvoiced": 7740,
      "ĠAthletic": 7741,
      "Ġpreferred": 7742,
      "ĠAerith": 7743,
      "ĠPhillies": 7744,
      "ĠGrammy": 7745,
      "Ġsurvivors": 7746,
      "Ġresources": 7747,
      "species": 7748,
      "after": 7749,
      "burn": 7750,
      "boy": 7751,
      "math": 7752,
      "rich": 7753,
      "vements": 7754,
      "Ġbor": 7755,
      "Ġdens": 7756,
      "ĠSports": 7757,
      "elle": 7758,
      "ĠMir": 7759,
      "ĠMother": 7760,
      "ĠMÃ¡": 7761,
      "urrent": 7762,
      "ĠHou": 7763,
      "ĠRugby": 7764,
      "ĠFound": 7765,
      "ĠFront": 7766,
      "Ġrugby": 7767,
      "Ġexit": 7768,
      "ĠKen": 7769,
      "ĠKann": 7770,
      "ĠKrak": 7771,
      "iped": 7772,
      "ishment": 7773,
      "ĠAlong": 7774,
      "rene": 7775,
      "Ġfeed": 7776,
      "Ġdeck": 7777,
      "Ġformally": 7778,
      "Ġfollowers": 7779,
      "Ġ09": 7780,
      "Ġrepresents": 7781,
      "Ġoperating": 7782,
      "Ġconsiders": 7783,
      "ĠUSD": 7784,
      "ĠProg": 7785,
      "Ġclassic": 7786,
      "Ġrefers": 7787,
      "ĠMcG": 7788,
      "Ġcovering": 7789,
      "Ġelse": 7790,
      "Ġcriticised": 7791,
      "Ġdoesn": 7792,
      "Ġcloser": 7793,
      "ĠChampionships": 7794,
      "ĠMarkgra": 7795,
      "Ġtribut": 7796,
      "Ġabsence": 7797,
      "Ġcruiser": 7798,
      "Ġfeelings": 7799,
      "Ġvisitors": 7800,
      "Ġproducts": 7801,
      "Ġnormally": 7802,
      "Ġhundreds": 7803,
      "ĠCathedral": 7804,
      "Ġlegislation": 7805,
      "Ġdeployed": 7806,
      "Ġinterpret": 7807,
      "Ġpanel": 7808,
      "Ġarrested": 7809,
      "Ġdialogue": 7810,
      "Ġproposal": 7811,
      "inje": 7812,
      "Ġastronom": 7813,
      "Ġpupils": 7814,
      "Ġmunicipal": 7815,
      "ĠFernand": 7816,
      "ĠColorado": 7817,
      "ĠRaffles": 7818,
      "ĠFurtado": 7819,
      "ĠMarkgraf": 7820,
      "CC": 7821,
      "OK": 7822,
      "ean": 7823,
      "iy": 7824,
      "Ġille": 7825,
      "Ġtank": 7826,
      "hered": 7827,
      "Ġaw": 7828,
      "Ġfram": 7829,
      "ashed": 7830,
      "ĠSatur": 7831,
      "Ġliber": 7832,
      "ĠBell": 7833,
      "ĠBath": 7834,
      "otype": 7835,
      "ĠHud": 7836,
      "ĠHok": 7837,
      "Ġstable": 7838,
      "ĠRoc": 7839,
      "rage": 7840,
      "ĠLy": 7841,
      "ĠNar": 7842,
      "ĠNad": 7843,
      "ĠNichol": 7844,
      "Ġdeem": 7845,
      "Ġchoir": 7846,
      "Ġorb": 7847,
      "ĠUsta": 7848,
      "ishn": 7849,
      "ĠValky": 7850,
      "Ġreconnaissance": 7851,
      "Ġappropri": 7852,
      "Ġmanuscript": 7853,
      "Ġoutl": 7854,
      "Ġtele": 7855,
      "ĠComb": 7856,
      "Ġprerogative": 7857,
      "Ġforming": 7858,
      "ĠSholay": 7859,
      "Ġenth": 7860,
      "Ġsurpr": 7861,
      "Ġ166": 7862,
      "Ġextent": 7863,
      "Ġinfrast": 7864,
      "ullen": 7865,
      "Ġannually": 7866,
      "Ġ140": 7867,
      "Ġtrading": 7868,
      "Ġconvection": 7869,
      "Ġskull": 7870,
      "Ġbiographer": 7871,
      "Ġdevot": 7872,
      "Ġresearchers": 7873,
      "Ġpoorly": 7874,
      "Ġstationed": 7875,
      "Ġcheck": 7876,
      "Ġsatisf": 7877,
      "Ġensure": 7878,
      "Ġmoments": 7879,
      "Ġdrums": 7880,
      "Ġdisplays": 7881,
      "onomy": 7882,
      "ĠDominican": 7883,
      "ĠNHL": 7884,
      "Ġsubmarine": 7885,
      "Ġreconstruction": 7886,
      "cribed": 7887,
      "ĠDAG": 7888,
      "Ġmuscaria": 7889,
      "Ġoverwhel": 7890,
      "ĠUstaÅ¡": 7891,
      "DH": 7892,
      "friend": 7893,
      "life": 7894,
      "rants": 7895,
      "vati": 7896,
      "zac": 7897,
      "inian": 7898,
      "Ġsunk": 7899,
      "Ġsaves": 7900,
      "Ġwings": 7901,
      "ori": 7902,
      "Ġcreek": 7903,
      "Ġbrand": 7904,
      "Ġdream": 7905,
      "Ġdinosaur": 7906,
      "entional": 7907,
      "ĠCape": 7908,
      "Ġlose": 7909,
      "Ġloy": 7910,
      "Ġlists": 7911,
      "Ġnav": 7912,
      "ĠBat": 7913,
      "owiec": 7914,
      "Ġstreets": 7915,
      "ĠRom": 7916,
      "ĠWiÅ": 7917,
      "ĠJenn": 7918,
      "ateau": 7919,
      "Ġorbit": 7920,
      "anti": 7921,
      "ogy": 7922,
      "Ġintense": 7923,
      "Ġclock": 7924,
      "Ġabund": 7925,
      "ĠAlb": 7926,
      "ricted": 7927,
      "Ġjun": 7928,
      "ĠShow": 7929,
      "Ġentitled": 7930,
      "Ġtransition": 7931,
      "Ġobst": 7932,
      "Ġextension": 7933,
      "ĠWho": 7934,
      "Ġbelt": 7935,
      "ĠBlood": 7936,
      "Ġuseful": 7937,
      "Ġphr": 7938,
      "Ġmodified": 7939,
      "Ġdriven": 7940,
      "ĠRecord": 7941,
      "Ġposted": 7942,
      "Ġinfluential": 7943,
      "Ġdivor": 7944,
      "ĠRichmond": 7945,
      "ĠMaggie": 7946,
      "Ġsteam": 7947,
      "ĠMexican": 7948,
      "Ġinjuries": 7949,
      "Ġframe": 7950,
      "Ġmemory": 7951,
      "Ġwithdrew": 7952,
      "ĠFIFA": 7953,
      "Ġunderstanding": 7954,
      "Ġdramatic": 7955,
      "Ġbombard": 7956,
      "Ġemerg": 7957,
      "Ġpurposes": 7958,
      "Ġessential": 7959,
      "Ġdynasty": 7960,
      "Ġdoubt": 7961,
      "Ġutil": 7962,
      "niowiec": 7963,
      "ĠWiÅĽ": 7964,
      "eared": 7965,
      "hist": 7966,
      "ker": 7967,
      "lie": 7968,
      "lock": 7969,
      "ng": 7970,
      "oom": 7971,
      "ugh": 7972,
      "Ġtests": 7973,
      "Ġsaved": 7974,
      "Ġchess": 7975,
      "arth": 7976,
      "Ġbed": 7977,
      "rous": 7978,
      "Ġdiplom": 7979,
      "ĠSn": 7980,
      "ilst": 7981,
      "ĠCBS": 7982,
      "ĠMun": 7983,
      "ĠMach": 7984,
      "ĠBow": 7985,
      "ĠBab": 7986,
      "ĠBenn": 7987,
      "Ġgard": 7988,
      "Ġash": 7989,
      "ĠRest": 7990,
      "andy": 7991,
      "ĠEle": 7992,
      "Ġrated": 7993,
      "Ġrates": 7994,
      "Ġridge": 7995,
      "Ġplane": 7996,
      "Ġshipping": 7997,
      "acks": 7998,
      "Ġspoke": 7999
    },
    "merges": [
      [
        "Ġ",
        "t"
      ],
      [
        "h",
        "e"
      ],
      [
        "Ġ",
        "a"
      ],
      [
        "i",
        "n"
      ],
      [
        "Ġt",
        "he"
      ],
      [
        "e",
        "r"
      ],
      [
        "o",
        "n"
      ],
      [
        "Ġ",
        ","
      ],
      [
        "r",
        "e"
      ],
      [
        "Ġ",
        "s"
      ],
      [
        "e",
        "d"
      ],
      [
        "Ġ",
        "o"
      ],
      [
        "Ġ",
        "w"
      ],
      [
        "n",
        "d"
      ],
      [
        "a",
        "t"
      ],
      [
        "Ġ",
        "."
      ],
      [
        "o",
        "r"
      ],
      [
        "i",
        "t"
      ],
      [
        "Ġ",
        "c"
      ],
      [
        "e",
        "n"
      ],
      [
        "Ġ",
        "f"
      ],
      [
        "i",
        "s"
      ],
      [
        "e",
        "s"
      ],
      [
        "a",
        "r"
      ],
      [
        "Ġo",
        "f"
      ],
      [
        "Ġ",
        "b"
      ],
      [
        "a",
        "n"
      ],
      [
        "Ġ",
        "in"
      ],
      [
        "a",
        "l"
      ],
      [
        "in",
        "g"
      ],
      [
        "Ġ",
        "p"
      ],
      [
        "Ġa",
        "nd"
      ],
      [
        "a",
        "s"
      ],
      [
        "Ġt",
        "o"
      ],
      [
        "r",
        "o"
      ],
      [
        "i",
        "c"
      ],
      [
        "Ġ",
        "m"
      ],
      [
        "Ġ",
        "d"
      ],
      [
        "Ġ",
        "h"
      ],
      [
        "i",
        "on"
      ],
      [
        "l",
        "e"
      ],
      [
        "o",
        "u"
      ],
      [
        "Ġ",
        "T"
      ],
      [
        "Ġ",
        "re"
      ],
      [
        "Ġ",
        "="
      ],
      [
        "Ġ",
        "\""
      ],
      [
        "Ġ",
        "A"
      ],
      [
        "Ġ",
        "S"
      ],
      [
        "en",
        "t"
      ],
      [
        "i",
        "l"
      ],
      [
        "Ġt",
        "h"
      ],
      [
        "Ġ",
        "1"
      ],
      [
        "s",
        "t"
      ],
      [
        "Ġ",
        "C"
      ],
      [
        "e",
        "l"
      ],
      [
        "o",
        "m"
      ],
      [
        "Ġ",
        "l"
      ],
      [
        "a",
        "m"
      ],
      [
        "Ġ",
        "Ċ"
      ],
      [
        "Ġ",
        "e"
      ],
      [
        "Ġ",
        "n"
      ],
      [
        "Ġ",
        "@"
      ],
      [
        "a",
        "d"
      ],
      [
        "a",
        "c"
      ],
      [
        "Ġw",
        "as"
      ],
      [
        "Ġ",
        "M"
      ],
      [
        "u",
        "r"
      ],
      [
        "ĠT",
        "he"
      ],
      [
        "e",
        "c"
      ],
      [
        "Ġ",
        "on"
      ],
      [
        "l",
        "y"
      ],
      [
        "Ġ",
        "B"
      ],
      [
        "Ġ",
        "I"
      ],
      [
        "Ġ",
        "g"
      ],
      [
        "Ġ",
        "'"
      ],
      [
        "e",
        "t"
      ],
      [
        "o",
        "l"
      ],
      [
        "i",
        "d"
      ],
      [
        "i",
        "v"
      ],
      [
        "i",
        "m"
      ],
      [
        "Ġf",
        "or"
      ],
      [
        "i",
        "r"
      ],
      [
        "-",
        "@"
      ],
      [
        "Ġ@",
        "-@"
      ],
      [
        "i",
        "g"
      ],
      [
        "o",
        "t"
      ],
      [
        "t",
        "er"
      ],
      [
        "Ġa",
        "s"
      ],
      [
        "Ġ",
        "H"
      ],
      [
        "u",
        "s"
      ],
      [
        "o",
        "w"
      ],
      [
        "Ġs",
        "t"
      ],
      [
        "u",
        "t"
      ],
      [
        "it",
        "h"
      ],
      [
        "a",
        "y"
      ],
      [
        "Ġ",
        "2"
      ],
      [
        "Ġ",
        "P"
      ],
      [
        "at",
        "ion"
      ],
      [
        "v",
        "er"
      ],
      [
        "Ġb",
        "e"
      ],
      [
        "he",
        "r"
      ],
      [
        "Ġth",
        "at"
      ],
      [
        "Ġw",
        "ith"
      ],
      [
        "Ġ",
        "R"
      ],
      [
        "c",
        "e"
      ],
      [
        "t",
        "h"
      ],
      [
        "Ġ",
        "D"
      ],
      [
        "Ġ",
        "is"
      ],
      [
        "u",
        "n"
      ],
      [
        "e",
        "m"
      ],
      [
        "Ġ",
        "F"
      ],
      [
        "Ġw",
        "h"
      ],
      [
        "u",
        "l"
      ],
      [
        "Ġb",
        "y"
      ],
      [
        "Ġa",
        "l"
      ],
      [
        "c",
        "h"
      ],
      [
        "Ġ",
        ")"
      ],
      [
        "Ġ",
        "("
      ],
      [
        "Ġ",
        "W"
      ],
      [
        "Ġc",
        "on"
      ],
      [
        "r",
        "a"
      ],
      [
        "Ġ",
        "G"
      ],
      [
        "o",
        "s"
      ],
      [
        "Ġ",
        "L"
      ],
      [
        "Ġ",
        "N"
      ],
      [
        "Ġa",
        "t"
      ],
      [
        "er",
        "s"
      ],
      [
        "c",
        "t"
      ],
      [
        "Ġ",
        "it"
      ],
      [
        "Ġ1",
        "9"
      ],
      [
        "ro",
        "m"
      ],
      [
        "a",
        "nd"
      ],
      [
        "Ġa",
        "n"
      ],
      [
        "u",
        "m"
      ],
      [
        "es",
        "t"
      ],
      [
        "Ġ",
        "J"
      ],
      [
        "a",
        "g"
      ],
      [
        "Ġ",
        "he"
      ],
      [
        "0",
        "0"
      ],
      [
        "is",
        "t"
      ],
      [
        "a",
        "in"
      ],
      [
        "o",
        "d"
      ],
      [
        "a",
        "v"
      ],
      [
        "r",
        "i"
      ],
      [
        "Ġ",
        "E"
      ],
      [
        "Ġ",
        "O"
      ],
      [
        "Ġf",
        "rom"
      ],
      [
        "Ġc",
        "om"
      ],
      [
        "Ġh",
        "is"
      ],
      [
        "o",
        "p"
      ],
      [
        "Ġp",
        "ro"
      ],
      [
        "re",
        "s"
      ],
      [
        "i",
        "es"
      ],
      [
        "i",
        "f"
      ],
      [
        "Ġ",
        "v"
      ],
      [
        "or",
        "t"
      ],
      [
        "er",
        "e"
      ],
      [
        "il",
        "l"
      ],
      [
        "l",
        "d"
      ],
      [
        "Ġd",
        "e"
      ],
      [
        "p",
        "p"
      ],
      [
        "Ġs",
        "u"
      ],
      [
        "o",
        "re"
      ],
      [
        "ĠI",
        "n"
      ],
      [
        "Ġ",
        "r"
      ],
      [
        "Ġs",
        "e"
      ],
      [
        "Ġw",
        "ere"
      ],
      [
        "e",
        "w"
      ],
      [
        "on",
        "g"
      ],
      [
        "ig",
        "h"
      ],
      [
        "ar",
        "d"
      ],
      [
        "at",
        "e"
      ],
      [
        "al",
        "l"
      ],
      [
        "ar",
        "t"
      ],
      [
        "a",
        "k"
      ],
      [
        "ic",
        "h"
      ],
      [
        "Ġc",
        "h"
      ],
      [
        "Ġo",
        "r"
      ],
      [
        "a",
        "b"
      ],
      [
        "an",
        "t"
      ],
      [
        "u",
        "d"
      ],
      [
        "o",
        "c"
      ],
      [
        "b",
        "er"
      ],
      [
        "Ġe",
        "x"
      ],
      [
        "g",
        "h"
      ],
      [
        "it",
        "y"
      ],
      [
        "at",
        "ed"
      ],
      [
        "p",
        "t"
      ],
      [
        "es",
        "s"
      ],
      [
        "e",
        "ar"
      ],
      [
        "Ġ",
        "K"
      ],
      [
        "Ġp",
        "l"
      ],
      [
        "am",
        "e"
      ],
      [
        "q",
        "u"
      ],
      [
        "iv",
        "e"
      ],
      [
        "ro",
        "u"
      ],
      [
        "Ġa",
        "re"
      ],
      [
        "Ġ",
        "â"
      ],
      [
        "Ġs",
        "h"
      ],
      [
        "Ġ",
        "k"
      ],
      [
        "ac",
        "k"
      ],
      [
        "ec",
        "t"
      ],
      [
        "Ġâ",
        "Ģ"
      ],
      [
        "Ġ",
        "U"
      ],
      [
        "Ġh",
        "ad"
      ],
      [
        "s",
        "e"
      ],
      [
        "Ġwh",
        "ich"
      ],
      [
        "re",
        "d"
      ],
      [
        "o",
        "v"
      ],
      [
        "ĠS",
        "t"
      ],
      [
        "as",
        "t"
      ],
      [
        "Ġs",
        "p"
      ],
      [
        "i",
        "an"
      ],
      [
        "Ġ",
        "y"
      ],
      [
        "m",
        "ent"
      ],
      [
        "Ġ",
        "le"
      ],
      [
        "Ġn",
        "ot"
      ],
      [
        "g",
        "e"
      ],
      [
        "or",
        "d"
      ],
      [
        "r",
        "it"
      ],
      [
        "i",
        "p"
      ],
      [
        "in",
        "e"
      ],
      [
        "el",
        "l"
      ],
      [
        "al",
        "ly"
      ],
      [
        "ou",
        "r"
      ],
      [
        "o",
        "st"
      ],
      [
        "igh",
        "t"
      ],
      [
        "t",
        "her"
      ],
      [
        "a",
        "p"
      ],
      [
        "Ġ",
        "u"
      ],
      [
        "is",
        "h"
      ],
      [
        "ĠC",
        "h"
      ],
      [
        "ou",
        "n"
      ],
      [
        "i",
        "a"
      ],
      [
        "Ġ",
        "3"
      ],
      [
        "av",
        "e"
      ],
      [
        "ar",
        "y"
      ],
      [
        "u",
        "st"
      ],
      [
        "o",
        "g"
      ],
      [
        "Ġ2",
        "00"
      ],
      [
        "Ġ",
        "un"
      ],
      [
        "ou",
        "s"
      ],
      [
        "ir",
        "st"
      ],
      [
        "Ġ",
        "V"
      ],
      [
        "c",
        "c"
      ],
      [
        "Ġin",
        "c"
      ],
      [
        "Ġ",
        ";"
      ],
      [
        "Ġcom",
        "p"
      ],
      [
        "r",
        "u"
      ],
      [
        "ion",
        "s"
      ],
      [
        "Ġthe",
        "ir"
      ],
      [
        "Ġb",
        "ut"
      ],
      [
        "id",
        "e"
      ],
      [
        "u",
        "re"
      ],
      [
        "s",
        "o"
      ],
      [
        "Ġcon",
        "t"
      ],
      [
        "Ġin",
        "t"
      ],
      [
        "f",
        "ter"
      ],
      [
        "ic",
        "al"
      ],
      [
        "i",
        "al"
      ],
      [
        "Ġa",
        "r"
      ],
      [
        "Ġf",
        "irst"
      ],
      [
        "ou",
        "ld"
      ],
      [
        "Ġit",
        "s"
      ],
      [
        "he",
        "d"
      ],
      [
        "ĠâĢ",
        "ĵ"
      ],
      [
        "Ġw",
        "he"
      ],
      [
        "w",
        "o"
      ],
      [
        "ou",
        "t"
      ],
      [
        "u",
        "b"
      ],
      [
        "Ġ2",
        "0"
      ],
      [
        "f",
        "f"
      ],
      [
        "Ġ",
        ":"
      ],
      [
        "u",
        "e"
      ],
      [
        "Ġ",
        "her"
      ],
      [
        "ow",
        "n"
      ],
      [
        "o",
        "k"
      ],
      [
        "Ġal",
        "so"
      ],
      [
        "Ġc",
        "l"
      ],
      [
        "p",
        "er"
      ],
      [
        "ig",
        "n"
      ],
      [
        "at",
        "er"
      ],
      [
        "r",
        "an"
      ],
      [
        "or",
        "m"
      ],
      [
        "i",
        "e"
      ],
      [
        "om",
        "e"
      ],
      [
        "or",
        "k"
      ],
      [
        "as",
        "s"
      ],
      [
        "i",
        "re"
      ],
      [
        "e",
        "nd"
      ],
      [
        "Ġre",
        "s"
      ],
      [
        "Ġa",
        "b"
      ],
      [
        "Ġa",
        "d"
      ],
      [
        "Ġ",
        "us"
      ],
      [
        "r",
        "y"
      ],
      [
        "Ġre",
        "c"
      ],
      [
        "Ġh",
        "ave"
      ],
      [
        "ag",
        "e"
      ],
      [
        "ĠH",
        "e"
      ],
      [
        "Ġ",
        "4"
      ],
      [
        "Ġ",
        "ro"
      ],
      [
        "m",
        "er"
      ],
      [
        "Ġon",
        "e"
      ],
      [
        "on",
        "d"
      ],
      [
        "l",
        "ow"
      ],
      [
        "Ġh",
        "as"
      ],
      [
        "ĠT",
        "h"
      ],
      [
        "d",
        "u"
      ],
      [
        "Ġ",
        "5"
      ],
      [
        "Ġp",
        "er"
      ],
      [
        "Ġbe",
        "en"
      ],
      [
        "im",
        "e"
      ],
      [
        "Ġt",
        "wo"
      ],
      [
        "en",
        "ce"
      ],
      [
        "l",
        "and"
      ],
      [
        "Ġ1",
        "8"
      ],
      [
        ".",
        "@"
      ],
      [
        "Ġ@",
        ".@"
      ],
      [
        "ul",
        "t"
      ],
      [
        "re",
        "e"
      ],
      [
        "ou",
        "gh"
      ],
      [
        "i",
        "le"
      ],
      [
        "Ġwh",
        "o"
      ],
      [
        "ĠA",
        "l"
      ],
      [
        "Ġs",
        "c"
      ],
      [
        "ur",
        "ing"
      ],
      [
        "p",
        "l"
      ],
      [
        "or",
        "y"
      ],
      [
        "it",
        "ion"
      ],
      [
        "r",
        "ic"
      ],
      [
        "ation",
        "s"
      ],
      [
        "Ġd",
        "is"
      ],
      [
        "Ġth",
        "is"
      ],
      [
        "Ġb",
        "ec"
      ],
      [
        "Ġa",
        "pp"
      ],
      [
        "i",
        "z"
      ],
      [
        "ĠI",
        "t"
      ],
      [
        "a",
        "re"
      ],
      [
        "ac",
        "h"
      ],
      [
        "l",
        "ud"
      ],
      [
        "ad",
        "e"
      ],
      [
        "Ġpl",
        "ay"
      ],
      [
        "Ġ",
        "j"
      ],
      [
        "Ġm",
        "an"
      ],
      [
        "ac",
        "t"
      ],
      [
        "el",
        "y"
      ],
      [
        "Ġp",
        "art"
      ],
      [
        "Ġd",
        "es"
      ],
      [
        "Ġa",
        "g"
      ],
      [
        "Ġthe",
        "y"
      ],
      [
        "Ġy",
        "ear"
      ],
      [
        "oun",
        "t"
      ],
      [
        "Ġ20",
        "1"
      ],
      [
        "Ġo",
        "ver"
      ],
      [
        "Ġo",
        "ther"
      ],
      [
        "ou",
        "nd"
      ],
      [
        "Ġa",
        "fter"
      ],
      [
        "i",
        "b"
      ],
      [
        "o",
        "ver"
      ],
      [
        "Ġs",
        "er"
      ],
      [
        "Ġ",
        "en"
      ],
      [
        "Ġof",
        "f"
      ],
      [
        "Ġ",
        "im"
      ],
      [
        "ct",
        "ion"
      ],
      [
        "Ġ",
        "Y"
      ],
      [
        "k",
        "e"
      ],
      [
        "it",
        "e"
      ],
      [
        ",",
        "@"
      ],
      [
        "Ġ@",
        ",@"
      ],
      [
        "t",
        "e"
      ],
      [
        "ur",
        "n"
      ],
      [
        "Ġinc",
        "lud"
      ],
      [
        "res",
        "s"
      ],
      [
        "an",
        "ce"
      ],
      [
        "an",
        "g"
      ],
      [
        "Ġat",
        "t"
      ],
      [
        "ic",
        "e"
      ],
      [
        "ac",
        "e"
      ],
      [
        "ar",
        "k"
      ],
      [
        "Ġo",
        "ut"
      ],
      [
        "w",
        "n"
      ],
      [
        "p",
        "h"
      ],
      [
        "em",
        "ber"
      ],
      [
        "Ġp",
        "re"
      ],
      [
        "Ġu",
        "p"
      ],
      [
        "en",
        "s"
      ],
      [
        "m",
        "an"
      ],
      [
        "Ġe",
        "v"
      ],
      [
        "Ġt",
        "ime"
      ],
      [
        "nd",
        "er"
      ],
      [
        "rou",
        "gh"
      ],
      [
        "c",
        "ed"
      ],
      [
        "Ġf",
        "in"
      ],
      [
        "Ġint",
        "o"
      ],
      [
        "on",
        "e"
      ],
      [
        "p",
        "ort"
      ],
      [
        "rou",
        "nd"
      ],
      [
        "w",
        "e"
      ],
      [
        "re",
        "n"
      ],
      [
        "l",
        "es"
      ],
      [
        "in",
        "t"
      ],
      [
        "ĠO",
        "n"
      ],
      [
        "v",
        "el"
      ],
      [
        "Ġcom",
        "m"
      ],
      [
        "Ġs",
        "he"
      ],
      [
        "as",
        "on"
      ],
      [
        "am",
        "p"
      ],
      [
        "Ġt",
        "e"
      ],
      [
        "Ġw",
        "ould"
      ],
      [
        "w",
        "ard"
      ],
      [
        "Ġm",
        "ore"
      ],
      [
        "Ġ",
        "6"
      ],
      [
        "i",
        "ed"
      ],
      [
        "os",
        "e"
      ],
      [
        "ri",
        "b"
      ],
      [
        "ĠU",
        "n"
      ],
      [
        "Ġal",
        "l"
      ],
      [
        "ing",
        "s"
      ],
      [
        "ter",
        "n"
      ],
      [
        "c",
        "es"
      ],
      [
        "ab",
        "le"
      ],
      [
        "Ġw",
        "e"
      ],
      [
        "it",
        "ed"
      ],
      [
        "e",
        "ver"
      ],
      [
        "ent",
        "s"
      ],
      [
        "Ġh",
        "im"
      ],
      [
        "as",
        "ed"
      ],
      [
        "or",
        "s"
      ],
      [
        "o",
        "y"
      ],
      [
        "o",
        "od"
      ],
      [
        "Ġc",
        "ent"
      ],
      [
        "i",
        "x"
      ],
      [
        "as",
        "e"
      ],
      [
        "il",
        "d"
      ],
      [
        "ĠA",
        "n"
      ],
      [
        "Ġ",
        "7"
      ],
      [
        "Ġw",
        "ork"
      ],
      [
        "at",
        "es"
      ],
      [
        "i",
        "ous"
      ],
      [
        "at",
        "h"
      ],
      [
        "Ġp",
        "o"
      ],
      [
        "ro",
        "p"
      ],
      [
        "ol",
        "d"
      ],
      [
        "al",
        "s"
      ],
      [
        "is",
        "s"
      ],
      [
        "e",
        "y"
      ],
      [
        "ic",
        "t"
      ],
      [
        "Ġf",
        "e"
      ],
      [
        "Ġthe",
        "m"
      ],
      [
        "g",
        "an"
      ],
      [
        "Ġs",
        "ec"
      ],
      [
        "Ġb",
        "et"
      ],
      [
        "Ġwhe",
        "n"
      ],
      [
        "Ġs",
        "ong"
      ],
      [
        "Ġre",
        "m"
      ],
      [
        "e",
        "p"
      ],
      [
        "f",
        "orm"
      ],
      [
        "a",
        "il"
      ],
      [
        "f",
        "er"
      ],
      [
        "Ġe",
        "ar"
      ],
      [
        "ub",
        "l"
      ],
      [
        "a",
        "w"
      ],
      [
        "Ġk",
        "n"
      ],
      [
        "ak",
        "e"
      ],
      [
        "a",
        "us"
      ],
      [
        "Ġm",
        "ost"
      ],
      [
        "Ġcon",
        "s"
      ],
      [
        "Ġd",
        "uring"
      ],
      [
        "ĠA",
        "s"
      ],
      [
        "or",
        "th"
      ],
      [
        "Ġn",
        "ew"
      ],
      [
        "er",
        "ed"
      ],
      [
        "il",
        "m"
      ],
      [
        "v",
        "ed"
      ],
      [
        "at",
        "t"
      ],
      [
        "Ġon",
        "ly"
      ],
      [
        "Ġ",
        "9"
      ],
      [
        "Ġd",
        "ec"
      ],
      [
        "Ġ",
        "8"
      ],
      [
        "ic",
        "k"
      ],
      [
        "Ġg",
        "ame"
      ],
      [
        "on",
        "s"
      ],
      [
        "u",
        "g"
      ],
      [
        "Ġt",
        "r"
      ],
      [
        "f",
        "t"
      ],
      [
        "ot",
        "h"
      ],
      [
        "o",
        "ok"
      ],
      [
        "ĠM",
        "ar"
      ],
      [
        "re",
        "at"
      ],
      [
        "w",
        "ay"
      ],
      [
        "Ġc",
        "an"
      ],
      [
        "ol",
        "low"
      ],
      [
        "ou",
        "th"
      ],
      [
        "we",
        "en"
      ],
      [
        "ĠE",
        "n"
      ],
      [
        "Ġ19",
        "9"
      ],
      [
        "ter",
        "s"
      ],
      [
        "Ġre",
        "l"
      ],
      [
        "in",
        "d"
      ],
      [
        "Ġab",
        "out"
      ],
      [
        "Ġse",
        "ason"
      ],
      [
        "Ġag",
        "ain"
      ],
      [
        "r",
        "al"
      ],
      [
        "Ġth",
        "ree"
      ],
      [
        "ation",
        "al"
      ],
      [
        "Ġu",
        "nder"
      ],
      [
        "ul",
        "ar"
      ],
      [
        "Ġm",
        "e"
      ],
      [
        "Ġth",
        "an"
      ],
      [
        "ĠC",
        "om"
      ],
      [
        "ĠA",
        "r"
      ],
      [
        "h",
        "ip"
      ],
      [
        "o",
        "b"
      ],
      [
        "Ġn",
        "e"
      ],
      [
        "Ġbet",
        "ween"
      ],
      [
        "Ġf",
        "l"
      ],
      [
        "h",
        "n"
      ],
      [
        "v",
        "e"
      ],
      [
        "Ġch",
        "ar"
      ],
      [
        "Ġc",
        "ol"
      ],
      [
        "Ġrec",
        "ord"
      ],
      [
        "i",
        "ew"
      ],
      [
        "r",
        "on"
      ],
      [
        "f",
        "ore"
      ],
      [
        "Ġth",
        "rough"
      ],
      [
        "is",
        "ion"
      ],
      [
        "or",
        "n"
      ],
      [
        "Ġ",
        "00"
      ],
      [
        "oc",
        "k"
      ],
      [
        "Ġ",
        "ver"
      ],
      [
        "Ġl",
        "ater"
      ],
      [
        "Ġn",
        "um"
      ],
      [
        "Ġe",
        "nd"
      ],
      [
        "ol",
        "og"
      ],
      [
        "am",
        "es"
      ],
      [
        "Ġp",
        "os"
      ],
      [
        "Ġw",
        "rit"
      ],
      [
        "Ġpro",
        "du"
      ],
      [
        "Ġwh",
        "ile"
      ],
      [
        "Ġa",
        "ct"
      ],
      [
        "Ġre",
        "le"
      ],
      [
        "Ġf",
        "ilm"
      ],
      [
        "is",
        "hed"
      ],
      [
        "Ġp",
        "r"
      ],
      [
        "an",
        "s"
      ],
      [
        "Ġre",
        "g"
      ],
      [
        "Ġfor",
        "m"
      ],
      [
        "Ġas",
        "s"
      ],
      [
        "ĠS",
        "e"
      ],
      [
        "ur",
        "y"
      ],
      [
        "t",
        "ed"
      ],
      [
        "t",
        "s"
      ],
      [
        "Ġm",
        "ade"
      ],
      [
        "Ġsu",
        "b"
      ],
      [
        "Ġp",
        "e"
      ],
      [
        "Ġs",
        "o"
      ],
      [
        "or",
        "ld"
      ],
      [
        "Ġre",
        "t"
      ],
      [
        "ĠN",
        "ew"
      ],
      [
        "Ġsp",
        "ec"
      ],
      [
        "Ġa",
        "cc"
      ],
      [
        "Ġ",
        "qu"
      ],
      [
        "Ġwhe",
        "re"
      ],
      [
        "en",
        "er"
      ],
      [
        "Ġm",
        "ov"
      ],
      [
        "he",
        "s"
      ],
      [
        "mer",
        "ic"
      ],
      [
        "at",
        "ing"
      ],
      [
        "Ġin",
        "ter"
      ],
      [
        "ĠL",
        "e"
      ],
      [
        "ĠA",
        "meric"
      ],
      [
        "Ġ",
        "ra"
      ],
      [
        "Ġs",
        "ome"
      ],
      [
        "Ġc",
        "o"
      ],
      [
        "Ġl",
        "ar"
      ],
      [
        "Ġb",
        "u"
      ],
      [
        "Ġde",
        "f"
      ],
      [
        "b",
        "um"
      ],
      [
        "Ġa",
        "c"
      ],
      [
        "Ġm",
        "us"
      ],
      [
        "Ġf",
        "ollow"
      ],
      [
        "ĠA",
        "t"
      ],
      [
        "in",
        "s"
      ],
      [
        "iv",
        "ed"
      ],
      [
        "if",
        "ic"
      ],
      [
        "u",
        "al"
      ],
      [
        "Ġa",
        "m"
      ],
      [
        "Ġsu",
        "ch"
      ],
      [
        "Ġsec",
        "ond"
      ],
      [
        "i",
        "ke"
      ],
      [
        "Ġf",
        "our"
      ],
      [
        "Ġin",
        "d"
      ],
      [
        "an",
        "n"
      ],
      [
        "he",
        "n"
      ],
      [
        "Ġus",
        "ed"
      ],
      [
        "ĠR",
        "e"
      ],
      [
        "ic",
        "s"
      ],
      [
        "le",
        "ct"
      ],
      [
        "Ġd",
        "ay"
      ],
      [
        "i",
        "el"
      ],
      [
        "il",
        "y"
      ],
      [
        "ĠTh",
        "is"
      ],
      [
        "Ġ",
        "0"
      ],
      [
        "Ġp",
        "ubl"
      ],
      [
        "Ġc",
        "all"
      ],
      [
        "ĠJ",
        "o"
      ],
      [
        "l",
        "l"
      ],
      [
        "Ġal",
        "bum"
      ],
      [
        "Ġ00",
        "0"
      ],
      [
        "ran",
        "s"
      ],
      [
        "Ġd",
        "o"
      ],
      [
        "an",
        "y"
      ],
      [
        "Ġbe",
        "fore"
      ],
      [
        "ro",
        "s"
      ],
      [
        "ĠS",
        "h"
      ],
      [
        "Ġs",
        "y"
      ],
      [
        "a",
        "id"
      ],
      [
        "ĠEn",
        "g"
      ],
      [
        "Ġbe",
        "ing"
      ],
[...]
